{
  "version": "1.0",
  "truncation": null,
  "padding": null,
  "added_tokens": [
    {
      "id": 0,
      "content": "<bos>",
      "single_word": false,
      "lstrip": false,
      "rstrip": false,
      "normalized": false,
      "special": true
    },
    {
      "id": 1,
      "content": "<eos>",
      "single_word": false,
      "lstrip": false,
      "rstrip": false,
      "normalized": false,
      "special": true
    },
    {
      "id": 2,
      "content": "<pad>",
      "single_word": false,
      "lstrip": false,
      "rstrip": false,
      "normalized": false,
      "special": true
    },
    {
      "id": 3,
      "content": "<unk>",
      "single_word": false,
      "lstrip": false,
      "rstrip": false,
      "normalized": false,
      "special": true
    },
    {
      "id": 4,
      "content": "<mask>",
      "single_word": false,
      "lstrip": false,
      "rstrip": false,
      "normalized": false,
      "special": true
    }
  ],
  "normalizer": {
    "type": "Sequence",
    "normalizers": [
      {
        "type": "Nmt"
      },
      {
        "type": "NFD"
      },
      {
        "type": "Lowercase"
      }
    ]
  },
  "pre_tokenizer": {
    "type": "Metaspace",
    "replacement": "▁",
    "add_prefix_space": true
  },
  "post_processor": {
    "type": "TemplateProcessing",
    "single": [
      {
        "SpecialToken": {
          "id": "<bos>",
          "type_id": 0
        }
      },
      {
        "Sequence": {
          "id": "A",
          "type_id": 0
        }
      },
      {
        "SpecialToken": {
          "id": "<eos>",
          "type_id": 0
        }
      }
    ],
    "pair": [
      {
        "Sequence": {
          "id": "A",
          "type_id": 0
        }
      },
      {
        "Sequence": {
          "id": "B",
          "type_id": 1
        }
      }
    ],
    "special_tokens": {
      "<bos>": {
        "id": "<bos>",
        "ids": [
          0
        ],
        "tokens": [
          "<bos>"
        ]
      },
      "<eos>": {
        "id": "<eos>",
        "ids": [
          1
        ],
        "tokens": [
          "<eos>"
        ]
      }
    }
  },
  "decoder": {
    "type": "Metaspace",
    "replacement": "▁",
    "add_prefix_space": true
  },
  "model": {
    "type": "Unigram",
    "unk_id": 3,
    "vocab": [
      [
        "<bos>",
        0.0
      ],
      [
        "<eos>",
        0.0
      ],
      [
        "<pad>",
        0.0
      ],
      [
        "<unk>",
        0.0
      ],
      [
        "<mask>",
        0.0
      ],
      [
        "▁",
        -2.0317607036984384
      ],
      [
        ",",
        -3.204717361521734
      ],
      [
        "s",
        -3.9921348260199796
      ],
      [
        ".",
        -3.99534775751645
      ],
      [
        "▁the",
        -4.215961072306831
      ],
      [
        "的",
        -4.22882459080844
      ],
      [
        "。",
        -4.471358078784727
      ],
      [
        "▁and",
        -4.567323595681424
      ],
      [
        "▁to",
        -4.646179202919001
      ],
      [
        "▁a",
        -4.803749483331202
      ],
      [
        "▁of",
        -4.822804016734802
      ],
      [
        "▁that",
        -5.027104230159175
      ],
      [
        "▁in",
        -5.091913063551026
      ],
      [
        "▁i",
        -5.1572427594921955
      ],
      [
        "▁we",
        -5.404037728123036
      ],
      [
        "ing",
        -5.417684770402603
      ],
      [
        "▁you",
        -5.442081990928536
      ],
      [
        "在",
        -5.452057924395319
      ],
      [
        "▁is",
        -5.468528881813755
      ],
      [
        "t",
        -5.539386888834541
      ],
      [
        "d",
        -5.551036173420396
      ],
      [
        "是",
        -5.56117318731005
      ],
      [
        "▁it",
        -5.657036183462031
      ],
      [
        "▁this",
        -5.734707837529381
      ],
      [
        "ed",
        -5.741590551808862
      ],
      [
        "\"",
        -5.753643828422925
      ],
      [
        "?",
        -5.755757856359528
      ],
      [
        "了",
        -5.7833409001102485
      ],
      [
        "有",
        -5.898878908512673
      ],
      [
        "▁so",
        -5.902063542641828
      ],
      [
        "i",
        -5.905427724171947
      ],
      [
        "e",
        -5.913656642929283
      ],
      [
        "a",
        -5.959264045060337
      ],
      [
        "我",
        -5.978186625083824
      ],
      [
        "y",
        -6.019911575879604
      ],
      [
        "▁for",
        -6.033161955192467
      ],
      [
        "我們",
        -6.036258735284566
      ],
      [
        "▁我",
        -6.0640052966894995
      ],
      [
        "▁was",
        -6.09458234124118
      ],
      [
        "▁they",
        -6.104261919631613
      ],
      [
        "▁are",
        -6.148820549681455
      ],
      [
        "不",
        -6.155662956776014
      ],
      [
        "n",
        -6.157508992719082
      ],
      [
        "ly",
        -6.181934745530077
      ],
      [
        "r",
        -6.198857396557873
      ],
      [
        "'s",
        -6.208873855575563
      ],
      [
        ":",
        -6.212263626762519
      ],
      [
        "▁but",
        -6.221215956992475
      ],
      [
        "▁be",
        -6.242887519821984
      ],
      [
        "一",
        -6.245681221446764
      ],
      [
        "▁have",
        -6.25301876116654
      ],
      [
        "會",
        -6.257036869830856
      ],
      [
        "和",
        -6.283000623570226
      ],
      [
        "人",
        -6.294156151588153
      ],
      [
        "▁with",
        -6.294503260335878
      ],
      [
        "▁on",
        -6.317760238593063
      ],
      [
        "▁what",
        -6.328173964108418
      ],
      [
        "、",
        -6.34474542467442
      ],
      [
        "re",
        -6.351009073613895
      ],
      [
        "er",
        -6.372731136628724
      ],
      [
        "▁我們",
        -6.387825115260339
      ],
      [
        "上",
        -6.424035107856406
      ],
      [
        "▁can",
        -6.43871975054266
      ],
      [
        "m",
        -6.450767682731282
      ],
      [
        "or",
        -6.465779942416955
      ],
      [
        "al",
        -6.480254698872342
      ],
      [
        "你",
        -6.48900254643501
      ],
      [
        "g",
        -6.518436266419009
      ],
      [
        "▁my",
        -6.524397013200561
      ],
      [
        "▁do",
        -6.526175386275774
      ],
      [
        "來",
        -6.535499144012503
      ],
      [
        "▁as",
        -6.547103416464278
      ],
      [
        "到",
        -6.551117730691201
      ],
      [
        "▁about",
        -6.558295004146066
      ],
      [
        "▁it's",
        -6.566452873065524
      ],
      [
        "▁not",
        -6.5928628186597305
      ],
      [
        "這",
        -6.597448250292031
      ],
      [
        "▁there",
        -6.6184978608859275
      ],
      [
        "c",
        -6.6190379074650725
      ],
      [
        "▁all",
        -6.626160711103584
      ],
      [
        "▁at",
        -6.6270668316842585
      ],
      [
        "要",
        -6.663682607420304
      ],
      [
        "一個",
        -6.683349808086664
      ],
      [
        "大",
        -6.687981397452429
      ],
      [
        "f",
        -6.690176664347279
      ],
      [
        "▁one",
        -6.692011195326815
      ],
      [
        "中",
        -6.6931294503251895
      ],
      [
        "w",
        -6.69448666635474
      ],
      [
        "in",
        -6.702569927029424
      ],
      [
        "o",
        -6.727750585216933
      ],
      [
        "st",
        -6.733718582375429
      ],
      [
        "▁like",
        -6.734547976890719
      ],
      [
        "就",
        -6.737962321273049
      ],
      [
        "▁people",
        -6.738892057869272
      ],
      [
        "▁our",
        -6.768672116723394
      ],
      [
        "「",
        -6.774302350180717
      ],
      [
        "說",
        -6.776506849937075
      ],
      [
        "」",
        -6.778525839021354
      ],
      [
        "▁from",
        -6.7875266613165515
      ],
      [
        "對",
        -6.789041925791073
      ],
      [
        "很",
        -6.791936880203092
      ],
      [
        "it",
        -6.798555667665365
      ],
      [
        "他們",
        -6.816655858766023
      ],
      [
        "es",
        -6.8167903918677
      ],
      [
        "▁if",
        -6.835837833629702
      ],
      [
        "▁he",
        -6.837722087278669
      ],
      [
        "▁an",
        -6.8397646915227295
      ],
      [
        "▁me",
        -6.840858098703029
      ],
      [
        "▁or",
        -6.84477664610923
      ],
      [
        "用",
        -6.856649803195429
      ],
      [
        "也",
        -6.877800458438282
      ],
      [
        "時",
        -6.88590762473202
      ],
      [
        "▁when",
        -6.896095257381445
      ],
      [
        "ar",
        -6.911492745865512
      ],
      [
        "能",
        -6.91778443977414
      ],
      [
        "p",
        -6.9187022229946535
      ],
      [
        "都",
        -6.936089704417045
      ],
      [
        "▁just",
        -6.936591920534081
      ],
      [
        "▁now",
        -6.949092603236172
      ],
      [
        "地",
        -6.959238633203681
      ],
      [
        "▁these",
        -6.961471727166707
      ],
      [
        "這些",
        -6.96163396737632
      ],
      [
        "h",
        -6.977149268599122
      ],
      [
        "出",
        -6.977568276540131
      ],
      [
        "l",
        -6.978016896923057
      ],
      [
        "去",
        -7.004957459169882
      ],
      [
        "▁但",
        -7.005287039369705
      ],
      [
        "▁out",
        -7.0115867470595195
      ],
      [
        "le",
        -7.022525087031532
      ],
      [
        "▁by",
        -7.023506119165059
      ],
      [
        "▁how",
        -7.033639351671821
      ],
      [
        "被",
        -7.03503629879617
      ],
      [
        "ion",
        -7.038117040554511
      ],
      [
        "▁because",
        -7.039578968905014
      ],
      [
        "這個",
        -7.040934091953771
      ],
      [
        "好",
        -7.04590211864299
      ],
      [
        "可以",
        -7.06766785505431
      ],
      [
        "過",
        -7.072961879428391
      ],
      [
        "年",
        -7.0733074819053705
      ],
      [
        "▁up",
        -7.0829381264973446
      ],
      [
        "▁more",
        -7.091922495352279
      ],
      [
        "從",
        -7.099867325020336
      ],
      [
        "子",
        -7.1013679224373405
      ],
      [
        "u",
        -7.102689423147664
      ],
      [
        "▁their",
        -7.108117194870671
      ],
      [
        "他",
        -7.108906233094526
      ],
      [
        "ic",
        -7.110545395405245
      ],
      [
        "▁know",
        -7.1110727526683934
      ],
      [
        "▁them",
        -7.122485120648321
      ],
      [
        "k",
        -7.130847626431876
      ],
      [
        "▁who",
        -7.13257715146341
      ],
      [
        "▁see",
        -7.145081664546453
      ],
      [
        "▁your",
        -7.149363400615849
      ],
      [
        "th",
        -7.151280438954819
      ],
      [
        "▁had",
        -7.153219672923951
      ],
      [
        "▁這",
        -7.171401982260427
      ],
      [
        "下",
        -7.171803055756303
      ],
      [
        "▁us",
        -7.183216268376839
      ],
      [
        "very",
        -7.1885677070977945
      ],
      [
        "▁were",
        -7.195737620540838
      ],
      [
        "所",
        -7.202494401448558
      ],
      [
        "en",
        -7.213555099732741
      ],
      [
        "做",
        -7.2144400005059826
      ],
      [
        "著",
        -7.217737615226929
      ],
      [
        "它",
        -7.223402952246085
      ],
      [
        "把",
        -7.22699895680079
      ],
      [
        "te",
        -7.23692492445873
      ],
      [
        "▁going",
        -7.242504282817768
      ],
      [
        "ro",
        -7.244475925312663
      ],
      [
        "▁would",
        -7.247857423780836
      ],
      [
        "▁think",
        -7.258750627339936
      ],
      [
        "▁get",
        -7.265191694767951
      ],
      [
        "ation",
        -7.2705847434214625
      ],
      [
        "沒有",
        -7.275897814388168
      ],
      [
        "▁no",
        -7.2876106504983404
      ],
      [
        "on",
        -7.287798111614931
      ],
      [
        "多",
        -7.288499867490932
      ],
      [
        "b",
        -7.293339195988102
      ],
      [
        "為",
        -7.294653820988449
      ],
      [
        "▁你",
        -7.296535868986881
      ],
      [
        "以",
        -7.2968498851053205
      ],
      [
        "想",
        -7.297657349055207
      ],
      [
        "就是",
        -7.298226756479867
      ],
      [
        "於",
        -7.325777202231768
      ],
      [
        "which",
        -7.329349188704388
      ],
      [
        "小",
        -7.330396612450647
      ],
      [
        "更",
        -7.331169215316237
      ],
      [
        "▁some",
        -7.347574115516773
      ],
      [
        "看",
        -7.349028184071939
      ],
      [
        "▁time",
        -7.351798118839659
      ],
      [
        "▁world",
        -7.355990606772332
      ],
      [
        "最",
        -7.361055527775161
      ],
      [
        "▁really",
        -7.374569981747703
      ],
      [
        "裡",
        -7.384750350858518
      ],
      [
        "而",
        -7.395943947086257
      ],
      [
        "ch",
        -7.396488843656311
      ],
      [
        "▁here",
        -7.402764181927573
      ],
      [
        "▁could",
        -7.418896910193549
      ],
      [
        "'ve",
        -7.421249705337658
      ],
      [
        "▁has",
        -7.428720963504832
      ],
      [
        "n't",
        -7.430061030643488
      ],
      [
        "將",
        -7.431073790038656
      ],
      [
        "成",
        -7.4314919459066875
      ],
      [
        "▁de",
        -7.431990497841213
      ],
      [
        "者",
        -7.432484740953237
      ],
      [
        "ce",
        -7.43456035822355
      ],
      [
        "▁所以",
        -7.4348143826365085
      ],
      [
        "▁will",
        -7.437655855667531
      ],
      [
        "at",
        -7.438811767161104
      ],
      [
        "與",
        -7.446224960984207
      ],
      [
        "個",
        -7.447698306104828
      ],
      [
        "an",
        -7.453284605027349
      ],
      [
        "se",
        -7.45586243684766
      ],
      [
        "得",
        -7.456409349813782
      ],
      [
        "開始",
        -7.457442821451332
      ],
      [
        "'m",
        -7.465816795466589
      ],
      [
        "▁into",
        -7.466571214294092
      ],
      [
        "▁then",
        -7.468051933090637
      ],
      [
        "力",
        -7.482245645911146
      ],
      [
        "性",
        -7.485874504850601
      ],
      [
        "生",
        -7.487025445446708
      ],
      [
        "讓",
        -7.487318987557
      ],
      [
        "lo",
        -7.488265407704377
      ],
      [
        "▁go",
        -7.492933814829788
      ],
      [
        "▁other",
        -7.493797906109954
      ],
      [
        "is",
        -7.502541087576676
      ],
      [
        "▁他們",
        -7.503306688747703
      ],
      [
        "il",
        -7.5051667514674865
      ],
      [
        "▁where",
        -7.505682976324509
      ],
      [
        "▁don't",
        -7.5124729531645205
      ],
      [
        "的人",
        -7.519798423684055
      ],
      [
        "ent",
        -7.52079003342997
      ],
      [
        "▁did",
        -7.532282863315714
      ],
      [
        "▁way",
        -7.535448297590024
      ],
      [
        "那",
        -7.536895967146878
      ],
      [
        "體",
        -7.536925842588959
      ],
      [
        "v",
        -7.538109973067099
      ],
      [
        "ers",
        -7.538327555846164
      ],
      [
        "ate",
        -7.538349284801182
      ],
      [
        "ive",
        -7.54080026064555
      ],
      [
        "▁she",
        -7.541516364722314
      ],
      [
        "ur",
        -7.554740553291284
      ],
      [
        "▁p",
        -7.555534578572592
      ],
      [
        "▁years",
        -7.571150651389461
      ],
      [
        "▁want",
        -7.5771571119183765
      ],
      [
        "▁make",
        -7.586337168807866
      ],
      [
        "後",
        -7.586404715416496
      ],
      [
        "心",
        -7.589784555844469
      ],
      [
        "ter",
        -7.590541653067001
      ],
      [
        "▁new",
        -7.5920922561705755
      ],
      [
        "或",
        -7.5932695340344605
      ],
      [
        "非常",
        -7.598069385612455
      ],
      [
        "▁actually",
        -7.598078504855321
      ],
      [
        "po",
        -7.599436115660707
      ],
      [
        "家",
        -7.604854414293346
      ],
      [
        "給",
        -7.605687060416553
      ],
      [
        "▁b",
        -7.6078452576553826
      ],
      [
        "▁right",
        -7.61002728435621
      ],
      [
        "▁been",
        -7.62559508252072
      ],
      [
        "▁co",
        -7.631481037916851
      ],
      [
        "比",
        -7.6321707011375075
      ],
      [
        "還",
        -7.636942094091076
      ],
      [
        "▁over",
        -7.638002403669246
      ],
      [
        "可",
        -7.6387195891389315
      ],
      [
        "▁things",
        -7.642021854161259
      ],
      [
        "▁even",
        -7.646422092935676
      ],
      [
        "當",
        -7.647403951246773
      ],
      [
        "知道",
        -7.650926445805247
      ],
      [
        "hose",
        -7.658986184383606
      ],
      [
        "as",
        -7.662444648196054
      ],
      [
        "▁well",
        -7.666099400484349
      ],
      [
        "高",
        -7.6838823518999675
      ],
      [
        "▁need",
        -7.690036168797048
      ],
      [
        "不是",
        -7.692672717358203
      ],
      [
        "面",
        -7.693288542956623
      ],
      [
        "▁first",
        -7.693713800387133
      ],
      [
        "la",
        -7.701430444427658
      ],
      [
        "▁look",
        -7.702947876969304
      ],
      [
        "天",
        -7.705542996280835
      ],
      [
        "▁work",
        -7.706531109063272
      ],
      [
        "▁than",
        -7.708396917508933
      ],
      [
        "ve",
        -7.715546127622089
      ],
      [
        "▁因為",
        -7.715894876673614
      ],
      [
        "長",
        -7.7161538565219825
      ],
      [
        "需要",
        -7.727335155258832
      ],
      [
        "▁say",
        -7.7331107014088065
      ],
      [
        "之",
        -7.737433155391226
      ],
      [
        "vi",
        -7.74146857691488
      ],
      [
        "我的",
        -7.7424116666367855
      ],
      [
        ";",
        -7.742692647462896
      ],
      [
        "▁這是",
        -7.745297736928951
      ],
      [
        "▁con",
        -7.746178736533336
      ],
      [
        "▁two",
        -7.749484207329685
      ],
      [
        "ity",
        -7.752391893571907
      ],
      [
        "點",
        -7.752589238616263
      ],
      [
        "我們的",
        -7.752997678111042
      ],
      [
        "el",
        -7.754209493779641
      ],
      [
        "發",
        -7.754578696495113
      ],
      [
        "we're",
        -7.754808527268137
      ],
      [
        "▁他",
        -7.755601979574434
      ],
      [
        "▁also",
        -7.758795730262618
      ],
      [
        "自己",
        -7.767343291571647
      ],
      [
        "度",
        -7.769017244985697
      ],
      [
        "▁most",
        -7.771117295725844
      ],
      [
        "ment",
        -7.776523000205589
      ],
      [
        "ne",
        -7.786229681209495
      ],
      [
        "!",
        -7.788329587477849
      ],
      [
        "▁something",
        -7.788999152373274
      ],
      [
        "us",
        -7.789194761640925
      ],
      [
        "▁take",
        -7.790217555345247
      ],
      [
        "▁her",
        -7.794095641721988
      ],
      [
        "▁life",
        -7.795775323915899
      ],
      [
        "▁pro",
        -7.796683635810428
      ],
      [
        "▁his",
        -7.799268527279613
      ],
      [
        "分",
        -7.799903055410452
      ],
      [
        "▁而",
        -7.800644158856182
      ],
      [
        "前",
        -7.801956899323475
      ],
      [
        "她",
        -7.812993285527757
      ],
      [
        "可能",
        -7.819344008843201
      ],
      [
        "動",
        -7.824788635145099
      ],
      [
        "斯",
        -7.826331628816666
      ],
      [
        "化",
        -7.826617067329712
      ],
      [
        "▁back",
        -7.829986037945032
      ],
      [
        "無",
        -7.8315091733997555
      ],
      [
        "▁much",
        -7.837209092508667
      ],
      [
        "量",
        -7.841636887077074
      ],
      [
        "z",
        -7.842888249314484
      ],
      [
        "一些",
        -7.849991446326429
      ],
      [
        "問題",
        -7.852288704962689
      ],
      [
        "水",
        -7.856433701610706
      ],
      [
        "開",
        -7.8571579245219905
      ],
      [
        "▁said",
        -7.857352604597063
      ],
      [
        "數",
        -7.858574634090957
      ],
      [
        "ll",
        -7.860570934792225
      ],
      [
        "外",
        -7.86081400273568
      ],
      [
        "學",
        -7.863826305597682
      ],
      [
        "ok",
        -7.8671795017580095
      ],
      [
        "▁many",
        -7.871481613405885
      ],
      [
        "▁only",
        -7.872280808772469
      ],
      [
        "op",
        -7.876796774138478
      ],
      [
        "ul",
        -7.876804746547579
      ],
      [
        "▁un",
        -7.878971475013241
      ],
      [
        "正",
        -7.87907987354602
      ],
      [
        "進",
        -7.879506002528535
      ],
      [
        "手",
        -7.881227884193992
      ],
      [
        "able",
        -7.882562806865183
      ],
      [
        "tra",
        -7.88340493980375
      ],
      [
        "事",
        -7.8871161656173925
      ],
      [
        "嗎",
        -7.891387546164623
      ],
      [
        "再",
        -7.894213629331475
      ],
      [
        "法",
        -7.89446596921692
      ],
      [
        "已經",
        -7.897329819016466
      ],
      [
        "什麼",
        -7.904988977143558
      ],
      [
        "像",
        -7.909881523513992
      ],
      [
        "那些",
        -7.915157045851721
      ],
      [
        "發現",
        -7.915492019728191
      ],
      [
        "研究",
        -7.917991544950613
      ],
      [
        "行",
        -7.918133817937603
      ],
      [
        "特",
        -7.920562839827429
      ],
      [
        "ted",
        -7.92191414483835
      ],
      [
        "▁它",
        -7.929416222843244
      ],
      [
        "▁got",
        -7.931859078380164
      ],
      [
        "你們",
        -7.932956839064694
      ],
      [
        "▁thing",
        -7.935763968625075
      ],
      [
        "名",
        -7.93706388800147
      ],
      [
        "ol",
        -7.94034475048721
      ],
      [
        "tion",
        -7.941850705256352
      ],
      [
        "▁lot",
        -7.942229712657355
      ],
      [
        "同",
        -7.945010742913134
      ],
      [
        "相",
        -7.945613106076472
      ],
      [
        "ho",
        -7.948469095121146
      ],
      [
        "回",
        -7.950631964464158
      ],
      [
        "ge",
        -7.953303063808496
      ],
      [
        "'re",
        -7.954350283700981
      ],
      [
        "▁every",
        -7.961159649594352
      ],
      [
        "▁ra",
        -7.970908560505611
      ],
      [
        "▁little",
        -7.97261157832852
      ],
      [
        "x",
        -7.973314321723906
      ],
      [
        "及",
        -7.973665243403641
      ],
      [
        "▁kind",
        -7.975019628727029
      ],
      [
        "▁human",
        -7.975881094280661
      ],
      [
        "ck",
        -7.977717926555297
      ],
      [
        "如何",
        -7.97973525790084
      ],
      [
        "機",
        -7.980954841126419
      ],
      [
        "you're",
        -7.981606207414487
      ],
      [
        "2",
        -7.981628146145614
      ],
      [
        "一樣",
        -7.995903938268235
      ],
      [
        "lu",
        -7.996199145415888
      ],
      [
        "這種",
        -7.996219035083879
      ],
      [
        "跟",
        -7.999306785753072
      ],
      [
        "頭",
        -7.9994434351108215
      ],
      [
        "5",
        -8.001901892978246
      ],
      [
        "起",
        -8.007788480111094
      ],
      [
        "內",
        -8.011607693644455
      ],
      [
        "ies",
        -8.017076841907858
      ],
      [
        "現在",
        -8.019933422736367
      ],
      [
        "▁different",
        -8.02813960987795
      ],
      [
        "un",
        -8.028830296417535
      ],
      [
        "合",
        -8.029041320397011
      ],
      [
        "自",
        -8.030062443589669
      ],
      [
        "利",
        -8.030309806759737
      ],
      [
        "發生",
        -8.030889681282492
      ],
      [
        "▁through",
        -8.031802904365918
      ],
      [
        "▁good",
        -8.034079655212416
      ],
      [
        "加",
        -8.034560852263695
      ],
      [
        "改變",
        -8.03568547411502
      ],
      [
        "向",
        -8.037755456540204
      ],
      [
        "mo",
        -8.038434519684836
      ],
      [
        "▁但是",
        -8.048693749957291
      ],
      [
        "om",
        -8.0504248460534
      ],
      [
        "▁why",
        -8.058187925535284
      ],
      [
        "本",
        -8.058358563649085
      ],
      [
        "新",
        -8.058450290904903
      ],
      [
        "見",
        -8.060848250507895
      ],
      [
        "位",
        -8.06122188291069
      ],
      [
        "to",
        -8.062191860930424
      ],
      [
        "沒",
        -8.062883583619769
      ],
      [
        "ut",
        -8.06361148868091
      ],
      [
        "▁come",
        -8.070731938894866
      ],
      [
        "看到",
        -8.073253825801045
      ],
      [
        "ry",
        -8.073847781587038
      ],
      [
        "▁part",
        -8.074108436532878
      ],
      [
        "期",
        -8.074429859513074
      ],
      [
        "ld",
        -8.075562615086024
      ],
      [
        "世界",
        -8.075834905595999
      ],
      [
        "場",
        -8.077472928681155
      ],
      [
        "▁around",
        -8.077583768843404
      ],
      [
        "4",
        -8.077700901653643
      ],
      [
        "am",
        -8.078323079915545
      ],
      [
        "me",
        -8.080891625090091
      ],
      [
        "放",
        -8.081861928993941
      ],
      [
        "理",
        -8.082796723744165
      ],
      [
        "兩",
        -8.08961378866817
      ],
      [
        "你的",
        -8.093350769777404
      ],
      [
        "重",
        -8.094121687871349
      ],
      [
        "這樣",
        -8.09502421676071
      ],
      [
        "est",
        -8.097931542154743
      ],
      [
        "▁show",
        -8.098351027445574
      ],
      [
        "物",
        -8.101275030521206
      ],
      [
        "其他",
        -8.1025502693984
      ],
      [
        "▁然後",
        -8.1027138325298
      ],
      [
        "▁use",
        -8.104183029335712
      ],
      [
        "因為",
        -8.106991575199258
      ],
      [
        "▁down",
        -8.107288989508746
      ],
      [
        "使",
        -8.10855569026742
      ],
      [
        "▁being",
        -8.110841954880208
      ],
      [
        "國家",
        -8.111385840237324
      ],
      [
        "▁tell",
        -8.113883083171842
      ],
      [
        "工作",
        -8.115161415949508
      ],
      [
        "▁any",
        -8.12104731570311
      ],
      [
        "只",
        -8.124265719475073
      ],
      [
        "部",
        -8.129185366697302
      ],
      [
        "愛",
        -8.132395924108318
      ],
      [
        "三",
        -8.132842852233034
      ],
      [
        "人們",
        -8.138512946068738
      ],
      [
        "意",
        -8.141066414909334
      ],
      [
        "作",
        -8.144294148935023
      ],
      [
        "▁dis",
        -8.144917602592894
      ],
      [
        "處",
        -8.145226181911227
      ],
      [
        "um",
        -8.145387745424951
      ],
      [
        "種",
        -8.145703106866897
      ],
      [
        "真的",
        -8.147884162644612
      ],
      [
        "色",
        -8.148103911921758
      ],
      [
        "它們",
        -8.148506789942378
      ],
      [
        "車",
        -8.148914350917401
      ],
      [
        "▁same",
        -8.149891396643223
      ],
      [
        "ver",
        -8.150842034945754
      ],
      [
        "圖",
        -8.151195015872126
      ],
      [
        "公",
        -8.151469494757935
      ],
      [
        "ac",
        -8.15356465036976
      ],
      [
        "克",
        -8.154175023653497
      ],
      [
        "▁idea",
        -8.160705967764606
      ],
      [
        "人類",
        -8.160980747315314
      ],
      [
        "打",
        -8.166857866395526
      ],
      [
        "▁car",
        -8.172581850309005
      ],
      [
        "問",
        -8.17472944502296
      ],
      [
        "的是",
        -8.179467718818067
      ],
      [
        "▁bo",
        -8.179870743722205
      ],
      [
        "爾",
        -8.181833323244247
      ],
      [
        "國",
        -8.18403523725077
      ],
      [
        "邊",
        -8.18660071677717
      ],
      [
        "次",
        -8.187008819681706
      ],
      [
        "如",
        -8.18743075340186
      ],
      [
        "拉",
        -8.187754876103977
      ],
      [
        "走",
        -8.188415000628794
      ],
      [
        "qu",
        -8.18881859395349
      ],
      [
        "ance",
        -8.19020459690326
      ],
      [
        "方",
        -8.190316468873192
      ],
      [
        "光",
        -8.192384900796766
      ],
      [
        "使用",
        -8.192648177592885
      ],
      [
        "pe",
        -8.195936656435315
      ],
      [
        "▁change",
        -8.197150147762159
      ],
      [
        "ot",
        -8.197381931303067
      ],
      [
        "感",
        -8.197965983824886
      ],
      [
        "9",
        -8.202374100174177
      ],
      [
        "ally",
        -8.202886302534882
      ],
      [
        "ant",
        -8.203711590789865
      ],
      [
        "太",
        -8.206323748427462
      ],
      [
        "▁put",
        -8.215101909588299
      ],
      [
        "呢",
        -8.216371290567999
      ],
      [
        "道",
        -8.217146709832267
      ],
      [
        "▁ex",
        -8.221468121210416
      ],
      [
        "每",
        -8.221902851640696
      ],
      [
        "間",
        -8.225222642029072
      ],
      [
        "pi",
        -8.226234078646247
      ],
      [
        "業",
        -8.23286093639836
      ],
      [
        "教",
        -8.234640071599927
      ],
      [
        "▁after",
        -8.237320841421672
      ],
      [
        "▁day",
        -8.240053054207477
      ],
      [
        "能夠",
        -8.242049458297945
      ],
      [
        "任何",
        -8.24217925240469
      ],
      [
        "海",
        -8.242479826064768
      ],
      [
        "文",
        -8.250117884430912
      ],
      [
        "▁sh",
        -8.252746588072235
      ],
      [
        "▁talk",
        -8.25396798418893
      ],
      [
        "1",
        -8.2545166359837
      ],
      [
        "▁find",
        -8.259683494010016
      ],
      [
        "▁try",
        -8.261080306449374
      ],
      [
        "▁system",
        -8.262046891145767
      ],
      [
        "才",
        -8.262855895103803
      ],
      [
        "ke",
        -8.263617476477481
      ],
      [
        "不會",
        -8.264327147096418
      ],
      [
        "ga",
        -8.265107735944468
      ],
      [
        "▁start",
        -8.266011188529495
      ],
      [
        "▁great",
        -8.26743831828643
      ],
      [
        "3",
        -8.2676188854548
      ],
      [
        "入",
        -8.268422837717031
      ],
      [
        "ph",
        -8.27012000533265
      ],
      [
        "▁如果",
        -8.270481071761
      ],
      [
        "--",
        -8.273949936856567
      ],
      [
        "線",
        -8.27582416032985
      ],
      [
        "▁thank",
        -8.278025347567612
      ],
      [
        "花",
        -8.278169038742801
      ],
      [
        "▁three",
        -8.279453574172988
      ],
      [
        "'ll",
        -8.283321855698796
      ],
      [
        "ig",
        -8.283879115847295
      ],
      [
        "cr",
        -8.28841947982825
      ],
      [
        "原",
        -8.288508851759211
      ],
      [
        "▁help",
        -8.28854657289923
      ],
      [
        "美國",
        -8.291688110093698
      ],
      [
        "許多",
        -8.292545030832724
      ],
      [
        "平",
        -8.29319926169347
      ],
      [
        "又",
        -8.293821373906548
      ],
      [
        "設計",
        -8.296464081115632
      ],
      [
        "min",
        -8.297419526997839
      ],
      [
        "▁fact",
        -8.299163950575267
      ],
      [
        "▁現在",
        -8.301665204979361
      ],
      [
        "大家",
        -8.302715709604737
      ],
      [
        "談",
        -8.303192966370197
      ],
      [
        "說:",
        -8.303411012474045
      ],
      [
        "電",
        -8.306815288592377
      ],
      [
        "十",
        -8.307846166758143
      ],
      [
        "called",
        -8.310341785205623
      ],
      [
        "受",
        -8.310910637492029
      ],
      [
        "▁today",
        -8.314698193286976
      ],
      [
        "所有",
        -8.315388319868596
      ],
      [
        "情",
        -8.316572753533418
      ],
      [
        "然",
        -8.319518574576785
      ],
      [
        "▁sp",
        -8.320610320317934
      ],
      [
        "信",
        -8.322737033739177
      ],
      [
        "▁own",
        -8.325499498130268
      ],
      [
        "身",
        -8.325801119483417
      ],
      [
        "8",
        -8.326738649553294
      ],
      [
        "7",
        -8.329230882700818
      ],
      [
        "▁off",
        -8.330089780608802
      ],
      [
        "氣",
        -8.330861657927851
      ],
      [
        "ness",
        -8.33292413323311
      ],
      [
        "亞",
        -8.33558774389219
      ],
      [
        "時間",
        -8.33972539185382
      ],
      [
        "字",
        -8.339801879476838
      ],
      [
        "想要",
        -8.341078720932142
      ],
      [
        "先",
        -8.348009829632346
      ],
      [
        "each",
        -8.348632088193572
      ],
      [
        "提",
        -8.35074098963326
      ],
      [
        "聽",
        -8.35159535846397
      ],
      [
        "都是",
        -8.352600250973431
      ],
      [
        "帶",
        -8.3527473544002
      ],
      [
        "達",
        -8.35424525917789
      ],
      [
        "一種",
        -8.354692407432259
      ],
      [
        "流",
        -8.356655395850371
      ],
      [
        "常",
        -8.356813203461309
      ],
      [
        "明",
        -8.358446070863378
      ],
      [
        "▁percent",
        -8.362218802582795
      ],
      [
        "系統",
        -8.36254337591913
      ],
      [
        "路",
        -8.364984750483659
      ],
      [
        "age",
        -8.365087223847276
      ],
      [
        "6",
        -8.36742091731453
      ],
      [
        "無法",
        -8.367896685074065
      ],
      [
        "但",
        -8.367984868291963
      ],
      [
        "▁ma",
        -8.37195029391215
      ],
      [
        "ru",
        -8.372020904039669
      ],
      [
        "pa",
        -8.373246965907613
      ],
      [
        "▁doing",
        -8.37326880264741
      ],
      [
        "▁made",
        -8.373482334035597
      ],
      [
        "他們的",
        -8.377084836394749
      ],
      [
        "▁should",
        -8.379374678815894
      ],
      [
        "馬",
        -8.382176068655353
      ],
      [
        "▁big",
        -8.383697261142702
      ],
      [
        "的時候",
        -8.3859693067346
      ],
      [
        "va",
        -8.388614658132013
      ],
      [
        "▁give",
        -8.389174816744514
      ],
      [
        "應該",
        -8.390081133214139
      ],
      [
        "器",
        -8.391902028745742
      ],
      [
        "四",
        -8.393460823131743
      ],
      [
        "if",
        -8.39579453119937
      ],
      [
        "全",
        -8.400213586297532
      ],
      [
        "傳",
        -8.401241382513122
      ],
      [
        "he",
        -8.401939799590972
      ],
      [
        "認為",
        -8.402914937160963
      ],
      [
        "▁pre",
        -8.404177564986819
      ],
      [
        "金",
        -8.407153276110536
      ],
      [
        "寫",
        -8.407953830383983
      ],
      [
        "並",
        -8.409193559034797
      ],
      [
        "j",
        -8.410442924728887
      ],
      [
        "幾",
        -8.413979371099272
      ],
      [
        "▁那",
        -8.415392650683428
      ],
      [
        "希望",
        -8.415613673381698
      ],
      [
        "ting",
        -8.416885962099663
      ],
      [
        "'d",
        -8.416941521710998
      ],
      [
        "為什麼",
        -8.418352992465874
      ],
      [
        "▁high",
        -8.418514445523593
      ],
      [
        "話",
        -8.418537454871077
      ],
      [
        "tic",
        -8.420952265916265
      ],
      [
        "卻",
        -8.421408804587747
      ],
      [
        "▁她",
        -8.42252874450429
      ],
      [
        "轉",
        -8.424263852353693
      ],
      [
        "日",
        -8.424957868842942
      ],
      [
        "五",
        -8.4253762351272
      ],
      [
        "▁當",
        -8.425853936097631
      ],
      [
        "難",
        -8.428804251364344
      ],
      [
        "les",
        -8.43057413783608
      ],
      [
        "只是",
        -8.430689535297553
      ],
      [
        "強",
        -8.433147750793275
      ],
      [
        "此",
        -8.436518138402052
      ],
      [
        "▁c",
        -8.438399687102688
      ],
      [
        "self",
        -8.44582754700227
      ],
      [
        "員",
        -8.446311949979647
      ],
      [
        "▁before",
        -8.447378646037636
      ],
      [
        "片",
        -8.448222291817707
      ],
      [
        "bi",
        -8.448342764873868
      ],
      [
        "士",
        -8.45510557172604
      ],
      [
        "論",
        -8.45563337803835
      ],
      [
        "即",
        -8.456831383818498
      ],
      [
        "指",
        -8.458127700296163
      ],
      [
        "▁brain",
        -8.461061710939527
      ],
      [
        "▁him",
        -8.4634565065696
      ],
      [
        "民",
        -8.464213969019857
      ],
      [
        "視",
        -8.466241089188351
      ],
      [
        "com",
        -8.466897444826904
      ],
      [
        "and",
        -8.469957476845993
      ],
      [
        "ab",
        -8.471861931648426
      ],
      [
        "萬",
        -8.47211335621556
      ],
      [
        "▁might",
        -8.475305301149733
      ],
      [
        "ag",
        -8.476056385290661
      ],
      [
        "ca",
        -8.476208279984073
      ],
      [
        "ions",
        -8.476437387548943
      ],
      [
        "mp",
        -8.477677154489626
      ],
      [
        "西",
        -8.478154868929881
      ],
      [
        "型",
        -8.478357351719916
      ],
      [
        "反",
        -8.47857495358443
      ],
      [
        "了解",
        -8.48262476232176
      ],
      [
        "得到",
        -8.483422472008748
      ],
      [
        "很多",
        -8.48384013562627
      ],
      [
        "怎麼",
        -8.486192776126058
      ],
      [
        "社會",
        -8.486356432342873
      ],
      [
        "書",
        -8.487748110501387
      ],
      [
        "▁year",
        -8.488685833195152
      ],
      [
        "▁understand",
        -8.492212145800499
      ],
      [
        "▁important",
        -8.496246439755991
      ],
      [
        "ty",
        -8.497898735112852
      ],
      [
        "▁still",
        -8.498271308423538
      ],
      [
        "就會",
        -8.502325231785315
      ],
      [
        "實",
        -8.50513496081361
      ],
      [
        "▁never",
        -8.505307035051015
      ],
      [
        "▁thought",
        -8.505761398680999
      ],
      [
        "50",
        -8.506375695267485
      ],
      [
        "極",
        -8.512092835490195
      ],
      [
        "▁another",
        -8.51300600854511
      ],
      [
        "▁last",
        -8.514588484051894
      ],
      [
        "▁place",
        -8.515112501888304
      ],
      [
        "影響",
        -8.515527819835071
      ],
      [
        "▁better",
        -8.517374760152382
      ],
      [
        "真",
        -8.518128723807967
      ],
      [
        "▁live",
        -8.519177490195577
      ],
      [
        "星",
        -8.519757991671012
      ],
      [
        "per",
        -8.521071366848119
      ],
      [
        "交",
        -8.52216760386675
      ],
      [
        "ide",
        -8.522191986416946
      ],
      [
        "深",
        -8.522644602114804
      ],
      [
        "定",
        -8.526137631465563
      ],
      [
        "20",
        -8.526483829364269
      ],
      [
        "%",
        -8.526572518422903
      ],
      [
        "▁let",
        -8.528410704570863
      ],
      [
        "應",
        -8.528831894957943
      ],
      [
        "▁play",
        -8.530119443766846
      ],
      [
        "no",
        -8.531134705916909
      ],
      [
        "▁20",
        -8.535111320914947
      ],
      [
        "ian",
        -8.535399710205692
      ],
      [
        "▁started",
        -8.537216651635077
      ],
      [
        "主",
        -8.53948191538958
      ],
      [
        "樣",
        -8.542551453615598
      ],
      [
        "mb",
        -8.543461692260863
      ],
      [
        "東西",
        -8.543661881974408
      ],
      [
        "讓我們",
        -8.545059902400386
      ],
      [
        "▁found",
        -8.550724496432975
      ],
      [
        "ow",
        -8.551389737410041
      ],
      [
        "▁design",
        -8.552130930465532
      ],
      [
        "wa",
        -8.552579431595424
      ],
      [
        "生物",
        -8.552696431676331
      ],
      [
        "以及",
        -8.554388880169306
      ],
      [
        "▁fa",
        -8.555986658562697
      ],
      [
        "▁mi",
        -8.556430154127899
      ],
      [
        "讓我",
        -8.556748009581014
      ],
      [
        "甚至",
        -8.557137004303726
      ],
      [
        "角",
        -8.55760827594551
      ],
      [
        "▁long",
        -8.559962589710063
      ],
      [
        "▁mean",
        -8.564590300990577
      ],
      [
        "其實",
        -8.56516180394657
      ],
      [
        "ated",
        -8.566555676835268
      ],
      [
        "成為",
        -8.56666058014765
      ],
      [
        "▁together",
        -8.56986218284663
      ],
      [
        "取",
        -8.570107898642663
      ],
      [
        "不同",
        -8.570712840308998
      ],
      [
        "fl",
        -8.571181514446094
      ],
      [
        "▁000",
        -8.571187383541515
      ],
      [
        "▁end",
        -8.571516355613833
      ],
      [
        "ect",
        -8.571709233132005
      ],
      [
        "他的",
        -8.571824498533182
      ],
      [
        "一點",
        -8.572444200912068
      ],
      [
        "ure",
        -8.573018067287318
      ],
      [
        "完全",
        -8.574866625608367
      ],
      [
        "立",
        -8.57507622445601
      ],
      [
        "co",
        -8.576864022592437
      ],
      [
        "ence",
        -8.57717683599417
      ],
      [
        "知",
        -8.578353978238038
      ],
      [
        "等",
        -8.579019827269216
      ],
      [
        "這是",
        -8.579083955393754
      ],
      [
        "類",
        -8.579661896591617
      ],
      [
        "們",
        -8.580013428928265
      ],
      [
        "▁la",
        -8.582390033451388
      ],
      [
        "▁love",
        -8.582410316585008
      ],
      [
        "老",
        -8.583328403916306
      ],
      [
        "千",
        -8.584473395169814
      ],
      [
        "▁number",
        -8.584473472335217
      ],
      [
        "▁water",
        -8.584793135618714
      ],
      [
        "up",
        -8.587174754254717
      ],
      [
        "歲",
        -8.587913625292364
      ],
      [
        "品",
        -8.589263945641491
      ],
      [
        "▁school",
        -8.589884803069456
      ],
      [
        "德",
        -8.590867438282038
      ],
      [
        "▁example",
        -8.592354502821129
      ],
      [
        "張",
        -8.592778171398992
      ],
      [
        "▁too",
        -8.593226056656135
      ],
      [
        "▁women",
        -8.595077898762373
      ],
      [
        "例",
        -8.59599007225214
      ],
      [
        "ten",
        -8.597684863616502
      ],
      [
        "這裡",
        -8.598068671086484
      ],
      [
        "ine",
        -8.601375637516632
      ],
      [
        "▁point",
        -8.601549886020408
      ],
      [
        "美",
        -8.601990415841394
      ],
      [
        "▁problem",
        -8.602574070855272
      ],
      [
        "之後",
        -8.602905663395884
      ],
      [
        "非",
        -8.602906846284018
      ],
      [
        "▁fr",
        -8.60355320210416
      ],
      [
        "▁call",
        -8.603614268941433
      ],
      [
        "公司",
        -8.604100630009288
      ],
      [
        "其中",
        -8.6066272420959
      ],
      [
        "land",
        -8.608116015673083
      ],
      [
        "▁如果你",
        -8.608608652602086
      ],
      [
        "最後",
        -8.609224407198678
      ],
      [
        "各位",
        -8.610081172287197
      ],
      [
        "中的",
        -8.610290836340887
      ],
      [
        "▁story",
        -8.610825175500967
      ],
      [
        "格",
        -8.61132398327841
      ],
      [
        "自己的",
        -8.611759431478344
      ],
      [
        "▁few",
        -8.613320923656289
      ],
      [
        "出來",
        -8.615724407854
      ],
      [
        "如果",
        -8.617526280924592
      ],
      [
        "▁gra",
        -8.618103067753793
      ],
      [
        "該",
        -8.619599352831939
      ],
      [
        "▁feel",
        -8.620153138240893
      ],
      [
        "▁can't",
        -8.620525818528055
      ],
      [
        "件",
        -8.620539612704329
      ],
      [
        "▁under",
        -8.621577389663065
      ],
      [
        "吧",
        -8.623345320558524
      ],
      [
        "▁next",
        -8.623749094443903
      ],
      [
        "▁hand",
        -8.624203869414304
      ],
      [
        "工",
        -8.625862185741209
      ],
      [
        "ip",
        -8.625948383397155
      ],
      [
        "通",
        -8.62685289409886
      ],
      [
        "▁而且",
        -8.628533598596656
      ],
      [
        "▁這些",
        -8.630468317395207
      ],
      [
        "▁does",
        -8.631144197008117
      ],
      [
        "▁million",
        -8.631948340642206
      ],
      [
        "生活",
        -8.635199374907614
      ],
      [
        "▁bit",
        -8.636678921332846
      ],
      [
        "接",
        -8.63707155237074
      ],
      [
        "畫",
        -8.638390341220063
      ],
      [
        "相信",
        -8.641862747680786
      ],
      [
        "保",
        -8.642756213934009
      ],
      [
        "▁real",
        -8.64303791415041
      ],
      [
        "還有",
        -8.643045824263892
      ],
      [
        "'",
        -8.643471439887398
      ],
      [
        "的問題",
        -8.64700090496052
      ],
      [
        "是個",
        -8.64778713745673
      ],
      [
        "目",
        -8.649083975606134
      ],
      [
        "▁home",
        -8.649759599252045
      ],
      [
        "▁♫",
        -8.649977095314712
      ],
      [
        "這樣的",
        -8.65092430374752
      ],
      [
        "質",
        -8.651907055194224
      ],
      [
        "went",
        -8.653683809062986
      ],
      [
        "近",
        -8.65420665455666
      ],
      [
        "cy",
        -8.654928358328773
      ],
      [
        "used",
        -8.654982609680935
      ],
      [
        "則",
        -8.65503105577269
      ],
      [
        "單",
        -8.657411017003518
      ],
      [
        "▁我想",
        -8.657768316801757
      ],
      [
        "ary",
        -8.65890484544546
      ],
      [
        "其",
        -8.659214904988474
      ],
      [
        "▁may",
        -8.659717641118958
      ],
      [
        "病",
        -8.660693448951655
      ],
      [
        "▁data",
        -8.660933625380109
      ],
      [
        "▁between",
        -8.663831521860294
      ],
      [
        "▁health",
        -8.66410486206984
      ],
      [
        "ight",
        -8.667225301983391
      ],
      [
        "科技",
        -8.668294699384901
      ],
      [
        "由",
        -8.669621276322856
      ],
      [
        "步",
        -8.670916462876976
      ],
      [
        "上的",
        -8.672087023168398
      ],
      [
        "act",
        -8.672654956999049
      ],
      [
        "man",
        -8.672887861371478
      ],
      [
        "也是",
        -8.67456007398013
      ],
      [
        "bo",
        -8.676035078020346
      ],
      [
        "▁again",
        -8.677303610052384
      ],
      [
        "ster",
        -8.67925497371164
      ],
      [
        "結果",
        -8.679716797718871
      ],
      [
        "整",
        -8.680300255339471
      ],
      [
        "▁19",
        -8.681074500567028
      ],
      [
        "那個",
        -8.682901565264645
      ],
      [
        "如此",
        -8.683493728965395
      ],
      [
        "腦",
        -8.684897115245022
      ],
      [
        "拿",
        -8.687478998898477
      ],
      [
        "cu",
        -8.688796410881785
      ],
      [
        "那麼",
        -8.689987614915717
      ],
      [
        "權",
        -8.690183883334509
      ],
      [
        "▁dr",
        -8.691407353430362
      ],
      [
        "▁man",
        -8.69581535348095
      ],
      [
        "安",
        -8.697091663479746
      ],
      [
        "▁care",
        -8.69836204141413
      ],
      [
        "正在",
        -8.698741184189617
      ],
      [
        "百",
        -8.700681267419546
      ],
      [
        "微",
        -8.700892832572105
      ],
      [
        "決定",
        -8.70149064789426
      ],
      [
        "錢",
        -8.703652596966599
      ],
      [
        "▁question",
        -8.703998171554867
      ],
      [
        "更多",
        -8.704850998681465
      ],
      [
        "的東西",
        -8.708110617576587
      ],
      [
        "pr",
        -8.708797367466014
      ],
      [
        "生命",
        -8.710850146782729
      ],
      [
        "iv",
        -8.71148223199429
      ],
      [
        "一下",
        -8.711728998523794
      ],
      [
        "想像",
        -8.711882610817819
      ],
      [
        "▁believe",
        -8.711980170254602
      ],
      [
        "人的",
        -8.71222158140421
      ],
      [
        "ber",
        -8.712408099785513
      ],
      [
        "▁di",
        -8.712759696615997
      ],
      [
        "的方式",
        -8.712797709479052
      ],
      [
        "層",
        -8.713651291506178
      ],
      [
        "-",
        -8.714440231896521
      ],
      [
        "師",
        -8.714826882140903
      ],
      [
        "只有",
        -8.716387900186852
      ],
      [
        "und",
        -8.7192401094609
      ],
      [
        "be",
        -8.721960407795363
      ],
      [
        "變",
        -8.722365857189152
      ],
      [
        "▁far",
        -8.724719162920879
      ],
      [
        "解",
        -8.725248157217312
      ],
      [
        "▁second",
        -8.726574886957664
      ],
      [
        "ful",
        -8.727920655243329
      ],
      [
        "▁course",
        -8.727990727891198
      ],
      [
        "▁war",
        -8.72803140982166
      ],
      [
        "不能",
        -8.728325045885304
      ],
      [
        "過去",
        -8.728529897735966
      ],
      [
        "▁its",
        -8.728612521430527
      ],
      [
        "遠",
        -8.728813357024116
      ],
      [
        "關",
        -8.72911566304611
      ],
      [
        "觀",
        -8.729393076473587
      ],
      [
        "還是",
        -8.729537770538682
      ],
      [
        "故事",
        -8.729951089223995
      ],
      [
        "代",
        -8.73090711670697
      ],
      [
        "一直",
        -8.731037956474701
      ],
      [
        "算",
        -8.731043016452961
      ],
      [
        "▁become",
        -8.731227014608097
      ],
      [
        "進行",
        -8.731651627229324
      ],
      [
        "不同的",
        -8.732739930148862
      ],
      [
        "▁small",
        -8.73310350230808
      ],
      [
        "▁ago",
        -8.735484369372301
      ],
      [
        "對於",
        -8.736384220168377
      ],
      [
        "少",
        -8.738318632221107
      ],
      [
        "巴",
        -8.738521868125751
      ],
      [
        "導",
        -8.741500192101311
      ],
      [
        "▁technology",
        -8.74196174540209
      ],
      [
        "細胞",
        -8.741968261382226
      ],
      [
        "che",
        -8.742113461956498
      ],
      [
        "發展",
        -8.744394876982026
      ],
      [
        "ous",
        -8.745293867397383
      ],
      [
        "必須",
        -8.746438118092188
      ],
      [
        "案",
        -8.746763285103949
      ],
      [
        "all",
        -8.747811439264893
      ],
      [
        "未來",
        -8.74934988182369
      ],
      [
        "已",
        -8.750178864323198
      ],
      [
        "方式",
        -8.75174557041517
      ],
      [
        "30",
        -8.751849544774002
      ],
      [
        "的事",
        -8.754004007075064
      ],
      [
        "喜歡",
        -8.754982637103048
      ],
      [
        "的地方",
        -8.7558553380212
      ],
      [
        "收",
        -8.756619718356161
      ],
      [
        "▁maybe",
        -8.75750373288006
      ],
      [
        "便",
        -8.758172839880286
      ],
      [
        "▁came",
        -8.758364807750578
      ],
      [
        "cor",
        -8.759535696420611
      ],
      [
        "關於",
        -8.761047108737563
      ],
      [
        "節",
        -8.761681102480033
      ],
      [
        "早",
        -8.761974014020748
      ],
      [
        "活",
        -8.762635207834037
      ],
      [
        "rie",
        -8.763168239211625
      ],
      [
        "▁space",
        -8.763451061475495
      ],
      [
        "死",
        -8.76401282553092
      ],
      [
        "▁hard",
        -8.764521360354676
      ],
      [
        "管",
        -8.765662318748992
      ],
      [
        "▁person",
        -8.765835817907268
      ],
      [
        "▁mar",
        -8.768347595358264
      ],
      [
        "來說",
        -8.768494148223787
      ],
      [
        "找到",
        -8.76852283555987
      ],
      [
        "fo",
        -8.768567731989528
      ],
      [
        "▁children",
        -8.76932827207873
      ],
      [
        "▁let's",
        -8.770125844783445
      ],
      [
        "各",
        -8.773385525475302
      ],
      [
        "less",
        -8.776383180047112
      ],
      [
        "▁li",
        -8.777229206383486
      ],
      [
        "待",
        -8.77821772605408
      ],
      [
        "確",
        -8.77868859921943
      ],
      [
        "率",
        -8.780005835591934
      ],
      [
        "▁謝謝",
        -8.780942457222487
      ],
      [
        "ial",
        -8.78346191771114
      ],
      [
        "選",
        -8.785380411344246
      ],
      [
        "▁su",
        -8.787072185289793
      ],
      [
        "形",
        -8.791529497329236
      ],
      [
        "變成",
        -8.791923462645409
      ],
      [
        "▁power",
        -8.79284104521686
      ],
      [
        "▁trans",
        -8.793130096289119
      ],
      [
        "tal",
        -8.793955183505133
      ],
      [
        "基",
        -8.794750136367865
      ],
      [
        "推",
        -8.798368783701154
      ],
      [
        "▁ca",
        -8.800304859902104
      ],
      [
        "群",
        -8.801268829392892
      ],
      [
        "▁da",
        -8.801658736608738
      ],
      [
        "產生",
        -8.802113230145089
      ],
      [
        "ger",
        -8.802279682447313
      ],
      [
        "來自",
        -8.802333272927239
      ],
      [
        "越",
        -8.802630798552032
      ],
      [
        "存在",
        -8.802790966952468
      ],
      [
        "認",
        -8.803295691786733
      ],
      [
        "▁four",
        -8.804056279892269
      ],
      [
        "電腦",
        -8.804130546962444
      ],
      [
        "條",
        -8.804462872341862
      ],
      [
        "感覺",
        -8.804836998589407
      ],
      [
        "經濟",
        -8.805384799978476
      ],
      [
        "▁tri",
        -8.805876336259486
      ],
      [
        "同時",
        -8.806240570382723
      ],
      [
        "gen",
        -8.806269942634716
      ],
      [
        "白",
        -8.807071014092958
      ],
      [
        "是一個",
        -8.807197616086654
      ],
      [
        "選擇",
        -8.808147587028603
      ],
      [
        "專",
        -8.809174974966295
      ],
      [
        "玩",
        -8.810595743204672
      ],
      [
        "女性",
        -8.811962997156156
      ],
      [
        "ish",
        -8.81202845575072
      ],
      [
        "▁turn",
        -8.812077125218893
      ],
      [
        "住",
        -8.814762425344242
      ],
      [
        "今天",
        -8.815111665327256
      ],
      [
        "▁always",
        -8.815222570091631
      ],
      [
        "創造",
        -8.815805699259677
      ],
      [
        "往",
        -8.81707524746425
      ],
      [
        "里",
        -8.817384730108556
      ],
      [
        "熱",
        -8.81738484498747
      ],
      [
        "▁因此",
        -8.818178334229167
      ],
      [
        "▁experience",
        -8.819514282951125
      ],
      [
        "ang",
        -8.820766172295912
      ],
      [
        "別",
        -8.821685842059052
      ],
      [
        "像是",
        -8.821701919599747
      ],
      [
        "▁這個",
        -8.821828447047032
      ],
      [
        "女",
        -8.822038807875565
      ],
      [
        "奇",
        -8.823857967615918
      ],
      [
        "▁doesn't",
        -8.824011621202144
      ],
      [
        "using",
        -8.824974906215871
      ],
      [
        "ick",
        -8.82580734556425
      ],
      [
        "密",
        -8.828281590329578
      ],
      [
        "19",
        -8.830991108499182
      ],
      [
        "▁pri",
        -8.831842537236243
      ],
      [
        "哪",
        -8.833216137624058
      ],
      [
        "服",
        -8.833873570090537
      ],
      [
        "真正",
        -8.835770806175455
      ],
      [
        "科學",
        -8.8361672170268
      ],
      [
        "ba",
        -8.836731022214412
      ],
      [
        "門",
        -8.838665572787626
      ],
      [
        "一位",
        -8.841575462194037
      ],
      [
        "▁create",
        -8.843071617058417
      ],
      [
        "速",
        -8.844358428794251
      ],
      [
        "第一",
        -8.84483594687285
      ],
      [
        "當時",
        -8.845353823618002
      ],
      [
        "因",
        -8.845535768147842
      ],
      [
        "孩子",
        -8.84561286346873
      ],
      [
        "請",
        -8.845641892777085
      ],
      [
        "▁fe",
        -8.846647973318616
      ],
      [
        "新的",
        -8.84738308183945
      ],
      [
        "兩個",
        -8.848875323689784
      ],
      [
        "ric",
        -8.849819328970945
      ],
      [
        "技術",
        -8.851535229143481
      ],
      [
        "月",
        -8.85212390172521
      ],
      [
        "樂",
        -8.852530594765112
      ],
      [
        "簡單",
        -8.852762307679754
      ],
      [
        "神",
        -8.85299221482333
      ],
      [
        "比較",
        -8.853316068701123
      ],
      [
        "組織",
        -8.85398080705452
      ],
      [
        "並不",
        -8.855073854469946
      ],
      [
        "▁cl",
        -8.855346340297396
      ],
      [
        "led",
        -8.856277550587727
      ],
      [
        "城市",
        -8.856584441297928
      ],
      [
        "▁light",
        -8.857678834210263
      ],
      [
        "▁per",
        -8.858363250065391
      ],
      [
        "gg",
        -8.859783214150477
      ],
      [
        "覺得",
        -8.859792849825865
      ],
      [
        "▁wanted",
        -8.861056325410274
      ],
      [
        "結",
        -8.863374245874912
      ],
      [
        "gan",
        -8.864220377852257
      ],
      [
        "台",
        -8.866244681401474
      ],
      [
        "the",
        -8.870703616585649
      ],
      [
        "區",
        -8.871460534937745
      ],
      [
        "起來",
        -8.871578277542422
      ],
      [
        "式",
        -8.873942295077207
      ],
      [
        "政府",
        -8.874735555455912
      ],
      [
        "火",
        -8.876375486911103
      ],
      [
        "大腦",
        -8.878544640844906
      ],
      [
        "象",
        -8.879635924884594
      ],
      [
        "兒",
        -8.879814893262534
      ],
      [
        "解決",
        -8.881746430840566
      ],
      [
        "朋友",
        -8.881975824456381
      ],
      [
        "組",
        -8.884709395155664
      ],
      [
        "卡",
        -8.884952151645475
      ],
      [
        "▁away",
        -8.885710896788853
      ],
      [
        "落",
        -8.88660997694367
      ],
      [
        "ven",
        -8.886665061250387
      ],
      [
        "▁10",
        -8.888185413736887
      ],
      [
        "tru",
        -8.889617020993981
      ],
      [
        "聲",
        -8.889860111493649
      ],
      [
        "是在",
        -8.889879951259715
      ],
      [
        "維",
        -8.889881377970944
      ],
      [
        "──",
        -8.88993491929215
      ],
      [
        "▁sort",
        -8.892617660414924
      ],
      [
        "▁face",
        -8.893940176323527
      ],
      [
        "看看",
        -8.894539618867888
      ],
      [
        "球",
        -8.895567405271448
      ],
      [
        "表",
        -8.896700103684774
      ],
      [
        "費",
        -8.896869630112784
      ],
      [
        "▁working",
        -8.89731351609509
      ],
      [
        "這麼",
        -8.899557895706867
      ],
      [
        "▁set",
        -8.901990254555134
      ],
      [
        "動物",
        -8.902449356174532
      ],
      [
        "▁looking",
        -8.902905151040692
      ],
      [
        "▁large",
        -8.903074360163291
      ],
      [
        "▁able",
        -8.903546196245372
      ],
      [
        "產",
        -8.904069825211291
      ],
      [
        "引",
        -8.904642689638848
      ],
      [
        "羅",
        -8.906044329420494
      ],
      [
        "▁everything",
        -8.90673028017143
      ],
      [
        "能力",
        -8.908637279131984
      ],
      [
        "離",
        -8.908829312071362
      ],
      [
        "資料",
        -8.91016298347523
      ],
      [
        "▁country",
        -8.910933756326207
      ],
      [
        "▁form",
        -8.91461524358129
      ],
      [
        "現",
        -8.914797621267752
      ],
      [
        "一起",
        -8.917272540612615
      ],
      [
        "半",
        -8.917614987578755
      ],
      [
        "▁done",
        -8.918078484568518
      ],
      [
        "口",
        -8.91862447395162
      ],
      [
        "ling",
        -8.920739069798042
      ],
      [
        "號",
        -8.921043758262478
      ],
      [
        "ical",
        -8.921245474361346
      ],
      [
        "環境",
        -8.921431802311497
      ],
      [
        "ism",
        -8.922233980872168
      ],
      [
        "全球",
        -8.922993675459793
      ],
      [
        "▁reason",
        -8.92310785521244
      ],
      [
        "網路",
        -8.925358379888957
      ],
      [
        "連",
        -8.928833288505492
      ],
      [
        "提供",
        -8.929065210362497
      ],
      [
        "▁while",
        -8.930745095248337
      ],
      [
        "健康",
        -8.93175269257792
      ],
      [
        "lic",
        -8.933210003184474
      ],
      [
        "00",
        -8.933447194199797
      ],
      [
        "幫助",
        -8.934953971855649
      ],
      [
        "二",
        -8.935724410054334
      ],
      [
        "另一",
        -8.93659295100171
      ],
      [
        "尼",
        -8.937318355528397
      ],
      [
        "布",
        -8.937318355528397
      ],
      [
        "▁means",
        -8.93768366002797
      ],
      [
        "不知道",
        -8.938343758006557
      ],
      [
        "▁whole",
        -8.942651035211163
      ],
      [
        "▁open",
        -8.943993520207751
      ],
      [
        "未",
        -8.944101872346026
      ],
      [
        "一次",
        -8.944138259276361
      ],
      [
        "son",
        -8.946920525283826
      ],
      [
        "記",
        -8.94701736571744
      ],
      [
        "報",
        -8.94781549963556
      ],
      [
        "ff",
        -8.947930419323722
      ],
      [
        "ard",
        -8.94804244987193
      ],
      [
        "是否",
        -8.948457854007511
      ],
      [
        "▁future",
        -8.948552653718178
      ],
      [
        "▁process",
        -8.950320007843768
      ],
      [
        "15",
        -8.950350854754413
      ],
      [
        "▁information",
        -8.95102892501361
      ],
      [
        "集",
        -8.951223264653613
      ],
      [
        "▁ask",
        -8.952791468582193
      ],
      [
        "rs",
        -8.953535378002805
      ],
      [
        "舉",
        -8.953862199262813
      ],
      [
        "bu",
        -8.953989316554429
      ],
      [
        "▁comp",
        -8.95447676290323
      ],
      [
        "▁plan",
        -8.957746184840342
      ],
      [
        "牠們",
        -8.958240718126426
      ],
      [
        "▁win",
        -8.958559600473569
      ],
      [
        "tain",
        -8.958726903875146
      ],
      [
        "英",
        -8.959612269196874
      ],
      [
        "▁social",
        -8.960276643477552
      ],
      [
        "▁ever",
        -8.960373990532375
      ],
      [
        "約",
        -8.960794905318842
      ],
      [
        "▁enough",
        -8.961701355084847
      ],
      [
        "是什麼",
        -8.963933254732241
      ],
      [
        "▁moment",
        -8.964033779827833
      ],
      [
        "聯",
        -8.96528468854773
      ],
      [
        "棒",
        -8.966362365923624
      ],
      [
        "叫",
        -8.966644877973874
      ],
      [
        "在這",
        -8.969299314055636
      ],
      [
        "▁building",
        -8.96989855257435
      ],
      [
        "之一",
        -8.969956953615167
      ],
      [
        "▁old",
        -8.969985991071983
      ],
      [
        "ell",
        -8.97022492299271
      ],
      [
        "造",
        -8.97022516573599
      ],
      [
        "總",
        -8.97114165324575
      ],
      [
        "ak",
        -8.971744687713642
      ],
      [
        "吃",
        -8.972490719572225
      ],
      [
        "地方",
        -8.97283161665621
      ],
      [
        "思考",
        -8.972972391955397
      ],
      [
        "快",
        -8.973620731217807
      ],
      [
        "一切",
        -8.97376031181571
      ],
      [
        "整個",
        -8.974117359321166
      ],
      [
        "關係",
        -8.975043941429117
      ],
      [
        "▁job",
        -8.976114266073147
      ],
      [
        "講",
        -8.976960643381602
      ],
      [
        "有一個",
        -8.977689402812278
      ],
      [
        "▁mind",
        -8.979239718515274
      ],
      [
        "▁without",
        -8.979466134853872
      ],
      [
        "▁body",
        -8.979771391618556
      ],
      [
        "元",
        -8.979929413625609
      ],
      [
        "排",
        -8.980477692420202
      ],
      [
        "▁five",
        -8.980572731198599
      ],
      [
        "有些",
        -8.982704734179269
      ],
      [
        "出現",
        -8.98280742226066
      ],
      [
        "cha",
        -8.983789346636787
      ],
      [
        "錯",
        -8.985243159792038
      ],
      [
        "▁earth",
        -8.985497333529219
      ],
      [
        "▁還有",
        -8.989857966064429
      ],
      [
        "身體",
        -8.989858220148474
      ],
      [
        "眼",
        -8.9899987509822
      ],
      [
        "照片",
        -8.990571887480801
      ],
      [
        "go",
        -8.990793714961107
      ],
      [
        "重要",
        -8.991672803282373
      ],
      [
        "ep",
        -8.993529890739522
      ],
      [
        "告訴",
        -8.994197753673113
      ],
      [
        "或是",
        -8.994792814090324
      ],
      [
        "▁2",
        -8.996090080868852
      ],
      [
        "學習",
        -8.999560808205384
      ],
      [
        "事情",
        -9.000362016530435
      ],
      [
        "▁am",
        -9.002046725947928
      ],
      [
        "制",
        -9.002397682538657
      ],
      [
        "port",
        -9.002969447013971
      ],
      [
        "10",
        -9.003340934630362
      ],
      [
        "▁thinking",
        -9.003388017262102
      ],
      [
        "▁best",
        -9.003750082265723
      ],
      [
        "之間",
        -9.00428630578428
      ],
      [
        "▁lead",
        -9.005624081681255
      ],
      [
        "▁left",
        -9.006721527039089
      ],
      [
        "裝",
        -9.007007182518796
      ],
      [
        "演",
        -9.007413973452305
      ],
      [
        "行為",
        -9.00779842228236
      ],
      [
        "▁walk",
        -9.008212987783782
      ],
      [
        "時候",
        -9.008287733673363
      ],
      [
        "展",
        -9.008703611063929
      ],
      [
        "造成",
        -9.009478385797244
      ],
      [
        "找",
        -9.01043576538099
      ],
      [
        "▁group",
        -9.011574249978441
      ],
      [
        "資訊",
        -9.01162619723
      ],
      [
        "▁但我",
        -9.011895985118546
      ],
      [
        "oc",
        -9.011950589507434
      ],
      [
        "▁food",
        -9.011951834583957
      ],
      [
        "戰",
        -9.013367454299537
      ],
      [
        "是我們",
        -9.01349225990604
      ],
      [
        "魚",
        -9.013832646269393
      ],
      [
        "▁kids",
        -9.015539309909165
      ],
      [
        "之前",
        -9.01567676012337
      ],
      [
        "ki",
        -9.017065466705338
      ],
      [
        "然後",
        -9.017418780258973
      ],
      [
        "成功",
        -9.017764445361017
      ],
      [
        "▁keep",
        -9.018782363011294
      ],
      [
        "▁這就是",
        -9.02079002571649
      ],
      [
        "獨",
        -9.021398409523675
      ],
      [
        "份",
        -9.023003847741034
      ],
      [
        "▁research",
        -9.024440816077886
      ],
      [
        "miss",
        -9.024627303981237
      ],
      [
        "空",
        -9.02480179653635
      ],
      [
        "眾",
        -9.026948670769515
      ],
      [
        "air",
        -9.02702826580759
      ],
      [
        "ton",
        -9.027617038143479
      ],
      [
        "▁money",
        -9.029413350129534
      ],
      [
        "方法",
        -9.030236938283576
      ],
      [
        "留",
        -9.03055353725263
      ],
      [
        "▁ju",
        -9.03076625655233
      ],
      [
        "學生",
        -9.031270022786718
      ],
      [
        "殺",
        -9.031320261451782
      ],
      [
        "例子",
        -9.03336321476387
      ],
      [
        "掉",
        -9.033623967568051
      ],
      [
        "▁answer",
        -9.034779504306144
      ],
      [
        "足",
        -9.035095388070495
      ],
      [
        "石",
        -9.039020010657982
      ],
      [
        "▁young",
        -9.03977590723251
      ],
      [
        "共",
        -9.039855370707986
      ],
      [
        "建",
        -9.039915654139545
      ],
      [
        "照",
        -9.039926674205704
      ],
      [
        "king",
        -9.040413519766162
      ],
      [
        "▁making",
        -9.040804348089223
      ],
      [
        "▁creat",
        -9.042064801632963
      ],
      [
        "感到",
        -9.042287694240894
      ],
      [
        "適",
        -9.043280280410073
      ],
      [
        "透過",
        -9.043338269319413
      ],
      [
        "▁times",
        -9.04379874028723
      ],
      [
        "座",
        -9.04522278293895
      ],
      [
        "ating",
        -9.045483932672482
      ],
      [
        "風",
        -9.045559339492193
      ],
      [
        "性的",
        -9.046129272538474
      ],
      [
        "有人",
        -9.047720133040912
      ],
      [
        "低",
        -9.047882087234143
      ],
      [
        "是因為",
        -9.048877786336261
      ],
      [
        "▁head",
        -9.049228671517515
      ],
      [
        "第二",
        -9.050238747531733
      ],
      [
        "▁sense",
        -9.050695003432528
      ],
      [
        "▁book",
        -9.050877624407454
      ],
      [
        "▁fi",
        -9.05213254101406
      ],
      [
        "波",
        -9.052247201977076
      ],
      [
        "所以",
        -9.052757429639199
      ],
      [
        "計畫",
        -9.053433638228503
      ],
      [
        "con",
        -9.054109164200067
      ],
      [
        "▁computer",
        -9.054211268898747
      ],
      [
        "use",
        -9.054398069595607
      ],
      [
        "▁develop",
        -9.055355251437936
      ],
      [
        "▁j",
        -9.055966871654057
      ],
      [
        "▁family",
        -9.056171104531726
      ],
      [
        "年前",
        -9.056921112592619
      ],
      [
        "▁project",
        -9.057351405153199
      ],
      [
        "▁所以我",
        -9.058677720298185
      ],
      [
        "語",
        -9.058836453420119
      ],
      [
        "命",
        -9.058907698307188
      ],
      [
        "end",
        -9.059153195137515
      ],
      [
        "▁imagine",
        -9.061217530743324
      ],
      [
        "getting",
        -9.061713523792502
      ],
      [
        "ious",
        -9.062293484018056
      ],
      [
        "▁city",
        -9.062364743418241
      ],
      [
        "·",
        -9.062481497037998
      ],
      [
        "所有的",
        -9.063532197086518
      ],
      [
        "數據",
        -9.064179601040442
      ],
      [
        "精",
        -9.064318654478987
      ],
      [
        "ture",
        -9.067142433414766
      ],
      [
        "▁lives",
        -9.06795468105296
      ],
      [
        "市",
        -9.068086281052695
      ],
      [
        "測",
        -9.070202822938256
      ],
      [
        "個人",
        -9.071096968143454
      ],
      [
        "六",
        -9.072022416036972
      ],
      [
        "預",
        -9.073906504841439
      ],
      [
        "ub",
        -9.074965431814148
      ],
      [
        "久",
        -9.077228675224049
      ],
      [
        "ugh",
        -9.077734083982573
      ],
      [
        "州",
        -9.078032049427975
      ],
      [
        "擁有",
        -9.078952420890413
      ],
      [
        "▁並",
        -9.080553980840335
      ],
      [
        "▁energy",
        -9.081655248295101
      ],
      [
        "試",
        -9.081724635616958
      ],
      [
        "▁matter",
        -9.08253665882679
      ],
      [
        "買",
        -9.08286589563293
      ],
      [
        "失",
        -9.085893881625081
      ],
      [
        "ability",
        -9.086507366390675
      ],
      [
        "非洲",
        -9.086590980460214
      ],
      [
        "稱",
        -9.087209805466422
      ],
      [
        "基因",
        -9.087530230374405
      ],
      [
        "調",
        -9.08763919011136
      ],
      [
        "若",
        -9.088129065605315
      ],
      [
        "▁move",
        -9.090502493994038
      ],
      [
        "▁close",
        -9.091083572394066
      ],
      [
        "▁planet",
        -9.092607698020153
      ],
      [
        "了一個",
        -9.09402033569273
      ],
      [
        "建築",
        -9.09465067159799
      ],
      [
        "▁bring",
        -9.0947937728705
      ],
      [
        "聲音",
        -9.095144326837726
      ],
      [
        "ran",
        -9.09582878077051
      ],
      [
        "養",
        -9.097919068197683
      ],
      [
        "山",
        -9.098329072297727
      ],
      [
        "▁build",
        -9.09881278980124
      ],
      [
        "運",
        -9.101431555978877
      ],
      [
        "▁science",
        -9.102438400242121
      ],
      [
        "教育",
        -9.1029789125775
      ],
      [
        "果",
        -9.103133597106929
      ],
      [
        "▁such",
        -9.103266184061852
      ],
      [
        "▁art",
        -9.10344540297086
      ],
      [
        "mat",
        -9.103477980675361
      ],
      [
        "ron",
        -9.103750867974133
      ],
      [
        "設",
        -9.103792663586681
      ],
      [
        "血",
        -9.10573803796348
      ],
      [
        "地球",
        -9.10582572214603
      ],
      [
        "自然",
        -9.106121707113637
      ],
      [
        "誰",
        -9.106151261103975
      ],
      [
        "▁hope",
        -9.106357743414303
      ],
      [
        "止",
        -9.10813434100054
      ],
      [
        "送",
        -9.110292911197758
      ],
      [
        "今",
        -9.110995740308908
      ],
      [
        "主義",
        -9.11343144644739
      ],
      [
        "經",
        -9.113751635753271
      ],
      [
        "納",
        -9.114035119253234
      ],
      [
        "▁picture",
        -9.114035735796918
      ],
      [
        "客",
        -9.117373323848682
      ],
      [
        "▁across",
        -9.117373441269333
      ],
      [
        "安全",
        -9.118133817444164
      ],
      [
        "▁room",
        -9.11848580471652
      ],
      [
        "▁sound",
        -9.118562899666827
      ],
      [
        "▁pass",
        -9.11962250082301
      ],
      [
        "製造",
        -9.121487715862797
      ],
      [
        "射",
        -9.1215618115862
      ],
      [
        "▁remember",
        -9.121981627539792
      ],
      [
        "她的",
        -9.122218147325196
      ],
      [
        "素",
        -9.122800801255309
      ],
      [
        "驚",
        -9.123656523129172
      ],
      [
        "▁both",
        -9.123947195050548
      ],
      [
        "way",
        -9.124145337635596
      ],
      [
        "▁share",
        -9.12435368808747
      ],
      [
        "▁rec",
        -9.124557935632595
      ],
      [
        "存",
        -9.124825344605751
      ],
      [
        "激",
        -9.126189501728668
      ],
      [
        "望",
        -9.126564290795153
      ],
      [
        "40",
        -9.126673771564406
      ],
      [
        "土",
        -9.127877621961014
      ],
      [
        "部分",
        -9.128554901055166
      ],
      [
        "▁basic",
        -9.13153501621905
      ],
      [
        "▁allow",
        -9.13278385166006
      ],
      [
        "音樂",
        -9.13354702125416
      ],
      [
        "▁government",
        -9.133808587465904
      ],
      [
        "▁global",
        -9.133808597587944
      ],
      [
        "▁stop",
        -9.13397685419482
      ],
      [
        "黑",
        -9.135654243009677
      ],
      [
        "的話",
        -9.13662180941158
      ],
      [
        "空間",
        -9.13682458776304
      ],
      [
        "資",
        -9.137772386594342
      ],
      [
        "學校",
        -9.138200675036886
      ],
      [
        "▁fun",
        -9.139014141694169
      ],
      [
        "▁often",
        -9.13957484174465
      ],
      [
        "▁case",
        -9.140383262742898
      ],
      [
        "▁product",
        -9.140895146615126
      ],
      [
        "cent",
        -9.141229796839214
      ],
      [
        "食物",
        -9.142388141889167
      ],
      [
        "覺",
        -9.144865128427817
      ],
      [
        "症",
        -9.144882015353346
      ],
      [
        "▁它們",
        -9.145149741652041
      ],
      [
        "建立",
        -9.145557008737537
      ],
      [
        "普",
        -9.146637498212003
      ],
      [
        "做的",
        -9.147287052161097
      ],
      [
        "處理",
        -9.147648525827389
      ],
      [
        "▁week",
        -9.148887395728314
      ],
      [
        "▁gu",
        -9.149607365290525
      ],
      [
        "ize",
        -9.14971110079098
      ],
      [
        "▁probably",
        -9.15051848816568
      ],
      [
        "bra",
        -9.15141179014838
      ],
      [
        "讀",
        -9.153972886027592
      ],
      [
        "學家",
        -9.154595753816949
      ],
      [
        "底",
        -9.155041402445578
      ],
      [
        "網",
        -9.15833182704263
      ],
      [
        "食",
        -9.160023174567279
      ],
      [
        "顯",
        -9.160193430040778
      ],
      [
        "可能會",
        -9.160819690371047
      ],
      [
        "穿",
        -9.16181558640546
      ],
      [
        "曾",
        -9.162448040177082
      ],
      [
        "滿",
        -9.163519659001446
      ],
      [
        "▁seem",
        -9.169623707071189
      ],
      [
        "▁na",
        -9.169819626596034
      ],
      [
        "’s",
        -9.169895768612266
      ],
      [
        "傷",
        -9.17095333806919
      ],
      [
        "▁once",
        -9.171276481755235
      ],
      [
        "斷",
        -9.171325753061224
      ],
      [
        "換",
        -9.171916682229602
      ],
      [
        "▁someone",
        -9.17204901208402
      ],
      [
        "的時間",
        -9.172118964895311
      ],
      [
        "▁pretty",
        -9.17236000357693
      ],
      [
        "我想",
        -9.172657222343993
      ],
      [
        "的事情",
        -9.172904915608449
      ],
      [
        "都有",
        -9.173654859480331
      ],
      [
        "塊",
        -9.175011291191735
      ],
      [
        "剛",
        -9.1756900147261
      ],
      [
        "dna",
        -9.176057755823905
      ],
      [
        "特別",
        -9.17685859629406
      ],
      [
        "day",
        -9.17778487083876
      ],
      [
        "▁child",
        -9.178144483009177
      ],
      [
        "運動",
        -9.178312263282137
      ],
      [
        "having",
        -9.178567346608165
      ],
      [
        "▁image",
        -9.180384501211334
      ],
      [
        "的故事",
        -9.180729680191
      ],
      [
        "▁else",
        -9.182461891956489
      ],
      [
        "▁sea",
        -9.183319115373727
      ],
      [
        "且",
        -9.18366776605222
      ],
      [
        "目標",
        -9.18541746181786
      ],
      [
        "列",
        -9.186139929413933
      ],
      [
        "合作",
        -9.186963004383413
      ],
      [
        "隨",
        -9.18720067898464
      ],
      [
        "文化",
        -9.187725120256474
      ],
      [
        "▁happened",
        -9.188355383999887
      ],
      [
        "刻",
        -9.18892559475492
      ],
      [
        "至",
        -9.190007847896503
      ],
      [
        "除",
        -9.19141995187946
      ],
      [
        "晚",
        -9.19152952363606
      ],
      [
        "ator",
        -9.192298579529337
      ],
      [
        "歷史",
        -9.192814845988785
      ],
      [
        "她們",
        -9.195541108812062
      ],
      [
        "▁learn",
        -9.195610437942388
      ],
      [
        "億",
        -9.196902258354095
      ],
      [
        "▁countries",
        -9.196948029592445
      ],
      [
        "疾病",
        -9.197455800491866
      ],
      [
        "▁girl",
        -9.198304726927482
      ],
      [
        "絕",
        -9.198991761916982
      ],
      [
        "12",
        -9.200099280234683
      ],
      [
        "▁control",
        -9.20012750413125
      ],
      [
        "▁community",
        -9.20057324653383
      ],
      [
        "ile",
        -9.200593800419874
      ],
      [
        "林",
        -9.201887570366107
      ],
      [
        "代表",
        -9.202322424587942
      ],
      [
        "程",
        -9.20240876644369
      ],
      [
        "南",
        -9.202846982402903
      ],
      [
        "超",
        -9.203282740539878
      ],
      [
        "藥",
        -9.203454622545921
      ],
      [
        "幫",
        -9.204113794070444
      ],
      [
        "阿",
        -9.20466970956413
      ],
      [
        "▁anything",
        -9.20468015384762
      ],
      [
        "▁business",
        -9.207410372575207
      ],
      [
        "▁你們",
        -9.20873272106206
      ],
      [
        "有關",
        -9.209591642018914
      ],
      [
        "助",
        -9.211380076183612
      ],
      [
        "思",
        -9.211647558734807
      ],
      [
        "▁half",
        -9.21291911089146
      ],
      [
        "標",
        -9.215067661141434
      ],
      [
        "政治",
        -9.215248457716328
      ],
      [
        "才能",
        -9.216344960530776
      ],
      [
        "quite",
        -9.216621076113068
      ],
      [
        "▁billion",
        -9.217440585902978
      ],
      [
        "只要",
        -9.218326974760581
      ],
      [
        "▁yet",
        -9.218482353337713
      ],
      [
        "▁single",
        -9.219035801406394
      ],
      [
        "音",
        -9.22048120672996
      ],
      [
        "▁simple",
        -9.220671748112094
      ],
      [
        "▁later",
        -9.221488665010373
      ],
      [
        "笑",
        -9.222153488422851
      ],
      [
        "▁living",
        -9.223086808593857
      ],
      [
        "▁happen",
        -9.22345736179943
      ],
      [
        "lie",
        -9.22481812456542
      ],
      [
        "令人",
        -9.225233406551208
      ],
      [
        "▁public",
        -9.226339640694194
      ],
      [
        "有個",
        -9.226970870950169
      ],
      [
        "實驗",
        -9.227936037575251
      ],
      [
        "mit",
        -9.228214386946258
      ],
      [
        "▁sure",
        -9.228552403765459
      ],
      [
        "治療",
        -9.228695818164569
      ],
      [
        "▁interesting",
        -9.229740874180075
      ],
      [
        "talking",
        -9.229817590645048
      ],
      [
        "移",
        -9.229956876316372
      ],
      [
        "就能",
        -9.230000101073417
      ],
      [
        "ward",
        -9.230195287039589
      ],
      [
        "核",
        -9.231948342673116
      ],
      [
        "asked",
        -9.232373420741778
      ],
      [
        "另一個",
        -9.233042564825551
      ],
      [
        "界",
        -9.23327183962822
      ],
      [
        "ized",
        -9.233456668500615
      ],
      [
        "護",
        -9.234015699612055
      ],
      [
        "超過",
        -9.234699662176437
      ],
      [
        "▁hear",
        -9.23472548834209
      ],
      [
        "室",
        -9.235606752632293
      ],
      [
        "將會",
        -9.236512622186176
      ],
      [
        "60",
        -9.236941014082621
      ],
      [
        "看起來",
        -9.237577792910873
      ],
      [
        "雖",
        -9.23758878055494
      ],
      [
        "複雜",
        -9.237618460380016
      ],
      [
        "▁saw",
        -9.238613627928569
      ],
      [
        "▁study",
        -9.239003888272393
      ],
      [
        "▁environment",
        -9.239948385213747
      ],
      [
        "清",
        -9.240416408538506
      ],
      [
        "ities",
        -9.242272697503628
      ],
      [
        "▁complete",
        -9.24232109836527
      ],
      [
        "▁bad",
        -9.242799937281104
      ],
      [
        "科",
        -9.243895337870894
      ],
      [
        "米",
        -9.244209755197907
      ],
      [
        "源",
        -9.246465225516488
      ],
      [
        "《",
        -9.247060790575098
      ],
      [
        "》",
        -9.247060790575098
      ],
      [
        "軍",
        -9.24896600664289
      ],
      [
        "▁black",
        -9.250055799451111
      ],
      [
        "神經",
        -9.250716468807806
      ],
      [
        "dia",
        -9.25087761702781
      ],
      [
        "醫生",
        -9.251360603112042
      ],
      [
        "都會",
        -9.252092967296338
      ],
      [
        "社區",
        -9.252332158118165
      ],
      [
        "幾乎",
        -9.252893227503014
      ],
      [
        "效",
        -9.254006275877664
      ],
      [
        "大約",
        -9.254458417048317
      ],
      [
        "控制",
        -9.256228690395327
      ],
      [
        "影片",
        -9.256378880793369
      ],
      [
        "直",
        -9.2579031003281
      ],
      [
        "▁sub",
        -9.259433471481318
      ],
      [
        "方面",
        -9.259556572049831
      ],
      [
        "分享",
        -9.261162070650489
      ],
      [
        "項",
        -9.261892264245084
      ],
      [
        "▁instead",
        -9.26240514453524
      ],
      [
        "▁disease",
        -9.262480076833725
      ],
      [
        "夫",
        -9.263372017809564
      ],
      [
        "uc",
        -9.264099476725132
      ],
      [
        "▁music",
        -9.264369001298828
      ],
      [
        "並不是",
        -9.264725737558303
      ],
      [
        "pan",
        -9.26480474023509
      ],
      [
        "利用",
        -9.265107766058401
      ],
      [
        "]",
        -9.266278292503632
      ],
      [
        "的工作",
        -9.266376500920035
      ],
      [
        "▁makes",
        -9.266700383176609
      ],
      [
        "蘭",
        -9.267248896152456
      ],
      [
        "▁model",
        -9.267253191939332
      ],
      [
        "態",
        -9.267587556504349
      ],
      [
        "假",
        -9.267623288715129
      ],
      [
        "詞",
        -9.26773460341203
      ],
      [
        "▁already",
        -9.267734822227386
      ],
      [
        "▁name",
        -9.267955571199767
      ],
      [
        "相當",
        -9.268468399471
      ],
      [
        "富",
        -9.268706656043017
      ],
      [
        "古",
        -9.268706656932373
      ],
      [
        "▁almost",
        -9.26919394904206
      ],
      [
        "下來",
        -9.269373394900953
      ],
      [
        "終",
        -9.270017559348009
      ],
      [
        "ake",
        -9.270496837255234
      ],
      [
        "想法",
        -9.27062719299351
      ],
      [
        "改",
        -9.271346371195015
      ],
      [
        "求",
        -9.2717496741917
      ],
      [
        "▁yes",
        -9.271889308420569
      ],
      [
        "▁vo",
        -9.273603357963776
      ],
      [
        "▁test",
        -9.27450115987892
      ],
      [
        "▁deep",
        -9.275276231587954
      ],
      [
        "家庭",
        -9.276088930815662
      ],
      [
        "依",
        -9.277497922168788
      ],
      [
        "具",
        -9.278307647914634
      ],
      [
        "活動",
        -9.278452824432865
      ],
      [
        "he's",
        -9.278797254844115
      ],
      [
        "目前",
        -9.279738790403023
      ],
      [
        "▁possible",
        -9.281021187040707
      ],
      [
        "▁sign",
        -9.281456883516146
      ],
      [
        "進入",
        -9.28148762729062
      ],
      [
        "▁cells",
        -9.28256798222828
      ],
      [
        "line",
        -9.2840397251611
      ],
      [
        "靠",
        -9.284389408816722
      ],
      [
        "細",
        -9.285323632365355
      ],
      [
        "樹",
        -9.285377795336178
      ],
      [
        "較",
        -9.2858822950789
      ],
      [
        "容易",
        -9.285935687357108
      ],
      [
        "▁machine",
        -9.286367590115539
      ],
      [
        "溫",
        -9.286862209235071
      ],
      [
        "接受",
        -9.288059437443362
      ],
      [
        "史",
        -9.288917546284047
      ],
      [
        "▁game",
        -9.289307427955595
      ],
      [
        "ible",
        -9.289430697616874
      ],
      [
        "▁watch",
        -9.290335929478616
      ],
      [
        "▁heart",
        -9.291891914396768
      ],
      [
        "▁nothing",
        -9.291916185332363
      ],
      [
        "短",
        -9.29232399032699
      ],
      [
        "▁patient",
        -9.292323998137736
      ],
      [
        "念",
        -9.293250724474383
      ],
      [
        "▁level",
        -9.293820071978702
      ],
      [
        "過程",
        -9.294696221984644
      ],
      [
        "回到",
        -9.294812303937471
      ],
      [
        "▁whether",
        -9.294816516901308
      ],
      [
        "▁所以我們",
        -9.295103672516792
      ],
      [
        "就像",
        -9.295128303693197
      ],
      [
        "▁house",
        -9.296229129700956
      ],
      [
        "▁history",
        -9.298317043670583
      ],
      [
        "▁kne",
        -9.299302649114267
      ],
      [
        "came",
        -9.299487298819432
      ],
      [
        "在這裡",
        -9.299876435730148
      ],
      [
        "營",
        -9.300824041327537
      ],
      [
        "▁sometimes",
        -9.301334817394487
      ],
      [
        "▁states",
        -9.301367816516409
      ],
      [
        "創",
        -9.30185257465109
      ],
      [
        "通常",
        -9.302793217949564
      ],
      [
        "反應",
        -9.304033610585762
      ],
      [
        "▁inside",
        -9.304215442951918
      ],
      [
        "採",
        -9.304849203909937
      ],
      [
        "答案",
        -9.305514201387933
      ],
      [
        "一定",
        -9.306239542111335
      ],
      [
        "▁dollars",
        -9.30689027731469
      ],
      [
        "保護",
        -9.30767337966422
      ],
      [
        "擊",
        -9.307869814941528
      ],
      [
        "▁lab",
        -9.309075209451414
      ],
      [
        "▁speak",
        -9.309906101886229
      ],
      [
        "言",
        -9.310181375696988
      ],
      [
        "支",
        -9.311879961874128
      ],
      [
        "段",
        -9.311883551517251
      ],
      [
        "靈",
        -9.313456851808557
      ],
      [
        "包",
        -9.316462901403584
      ],
      [
        "參與",
        -9.318792641285913
      ],
      [
        "復",
        -9.32060156181151
      ],
      [
        "百萬",
        -9.320990684667212
      ],
      [
        "▁cap",
        -9.322143940586205
      ],
      [
        "做出",
        -9.322679969401058
      ],
      [
        "多少",
        -9.32324981360191
      ],
      [
        "▁six",
        -9.325761552555068
      ],
      [
        "▁low",
        -9.326184820661616
      ],
      [
        "院",
        -9.326717590854805
      ],
      [
        "▁happens",
        -9.327128077115287
      ],
      [
        "意義",
        -9.327543936961314
      ],
      [
        "油",
        -9.328313682127963
      ],
      [
        "ship",
        -9.329202292411022
      ],
      [
        "製",
        -9.329547651623994
      ],
      [
        "▁mother",
        -9.3319466590942
      ],
      [
        "comes",
        -9.332290001353282
      ],
      [
        "大學",
        -9.332479951824833
      ],
      [
        "犯",
        -9.33348833780251
      ],
      [
        "商",
        -9.334260484419344
      ],
      [
        "▁language",
        -9.334526491114474
      ],
      [
        "▁words",
        -9.33608594556664
      ],
      [
        "▁since",
        -9.33610570394578
      ],
      [
        "小時",
        -9.336912398774455
      ],
      [
        "世界上",
        -9.338215955767808
      ],
      [
        "價值",
        -9.339278905732586
      ],
      [
        "哈",
        -9.339733478958333
      ],
      [
        "致",
        -9.34009575058372
      ],
      [
        "巨",
        -9.340255672169821
      ],
      [
        "在這個",
        -9.34173097133893
      ],
      [
        "首",
        -9.342110167044343
      ],
      [
        "衛",
        -9.342347176152565
      ],
      [
        "慢",
        -9.343394570830297
      ],
      [
        "每個",
        -9.34372433676651
      ],
      [
        "農",
        -9.343918679844972
      ],
      [
        "世紀",
        -9.344502209497396
      ],
      [
        "劇",
        -9.344967722665617
      ],
      [
        "語言",
        -9.345088254145738
      ],
      [
        "80",
        -9.345656565444102
      ],
      [
        "工具",
        -9.345741192164745
      ],
      [
        "端",
        -9.346543353207473
      ],
      [
        "完成",
        -9.347684118298117
      ],
      [
        "▁stuff",
        -9.348121674578802
      ],
      [
        "until",
        -9.348202774201313
      ],
      [
        "構",
        -9.348691180586222
      ],
      [
        "▁state",
        -9.348740148006268
      ],
      [
        "救",
        -9.351285195491771
      ],
      [
        "播",
        -9.352341998735946
      ],
      [
        "承",
        -9.352341998735948
      ],
      [
        "▁run",
        -9.352504356371245
      ],
      [
        "隊",
        -9.353328305126979
      ],
      [
        "▁law",
        -9.353336523929583
      ],
      [
        "...",
        -9.353423174451162
      ],
      [
        "▁order",
        -9.353616306908531
      ],
      [
        "▁top",
        -9.35405128516416
      ],
      [
        "些",
        -9.354330551143773
      ],
      [
        "伊",
        -9.35445892388027
      ],
      [
        "不要",
        -9.354555154502027
      ],
      [
        "▁discover",
        -9.355026361574154
      ],
      [
        "領",
        -9.35534463730048
      ],
      [
        "▁figure",
        -9.355519813974066
      ],
      [
        "▁program",
        -9.355682164750341
      ],
      [
        "▁stories",
        -9.35605064567267
      ],
      [
        "完",
        -9.35808719330527
      ],
      [
        "成長",
        -9.358921649637914
      ],
      [
        "親",
        -9.360464886767147
      ],
      [
        "官",
        -9.36137020642087
      ],
      [
        "宇宙",
        -9.361370226835309
      ],
      [
        "▁certain",
        -9.361905065510285
      ],
      [
        "▁而是",
        -9.362664455550807
      ],
      [
        "追",
        -9.36457619359502
      ],
      [
        "seen",
        -9.365220337538602
      ],
      [
        "升",
        -9.366183049820929
      ],
      [
        "▁particular",
        -9.366183050991506
      ],
      [
        "停",
        -9.366608392226711
      ],
      [
        "各種",
        -9.367670986044066
      ],
      [
        "▁wrong",
        -9.367792814931992
      ],
      [
        "盡",
        -9.369404529039628
      ],
      [
        "舞",
        -9.369942452654476
      ],
      [
        "▁africa",
        -9.370520200376959
      ],
      [
        "課",
        -9.372636419735825
      ],
      [
        "人生",
        -9.375749646709142
      ],
      [
        "科學家",
        -9.37577189628323
      ],
      [
        "挑戰",
        -9.376993047250316
      ],
      [
        "小孩",
        -9.377731082058638
      ],
      [
        "益",
        -9.379131706282907
      ],
      [
        "自由",
        -9.38235119911392
      ],
      [
        "狀況",
        -9.382407142276243
      ],
      [
        "十年",
        -9.383410358240797
      ],
      [
        "某",
        -9.384293588900519
      ],
      [
        "查",
        -9.385009875224778
      ],
      [
        "繼續",
        -9.386220470940522
      ],
      [
        "cal",
        -9.388183868434279
      ],
      [
        "系",
        -9.388373162579754
      ],
      [
        "藝術",
        -9.388465638019266
      ],
      [
        "死亡",
        -9.388980539270037
      ],
      [
        "世",
        -9.389730468136708
      ],
      [
        "▁free",
        -9.389835788568744
      ],
      [
        "景",
        -9.389979436123248
      ],
      [
        "機器人",
        -9.39056079172872
      ],
      [
        "實際上",
        -9.391727793217393
      ],
      [
        "▁stand",
        -9.392530334100503
      ],
      [
        "在一起",
        -9.392871299867306
      ],
      [
        "證",
        -9.394184689972647
      ],
      [
        "▁true",
        -9.394417514233332
      ],
      [
        "▁entire",
        -9.39445742561777
      ],
      [
        "▁robot",
        -9.394463432287075
      ],
      [
        "中心",
        -9.394855224241558
      ],
      [
        "▁everyone",
        -9.395692649780257
      ],
      [
        "切",
        -9.39638043929822
      ],
      [
        "情況",
        -9.396488687692571
      ],
      [
        "▁result",
        -9.398874787796002
      ],
      [
        "差",
        -9.399356305524211
      ],
      [
        "變得",
        -9.399633010894659
      ],
      [
        "做了",
        -9.400462585266158
      ],
      [
        "級",
        -9.403214554199161
      ],
      [
        "▁hundred",
        -9.403871880605362
      ],
      [
        "尋",
        -9.404750279385377
      ],
      [
        "▁team",
        -9.404827009667326
      ],
      [
        "▁step",
        -9.404969976145239
      ],
      [
        "▁video",
        -9.404986661534771
      ],
      [
        "不到",
        -9.405054286679295
      ],
      [
        "把它",
        -9.40680939490626
      ],
      [
        "united",
        -9.407394238002986
      ],
      [
        "重新",
        -9.40782945727091
      ],
      [
        "聽到",
        -9.407913164939302
      ],
      [
        "仍然",
        -9.409092351713578
      ],
      [
        "▁woman",
        -9.410014448071628
      ],
      [
        "努力",
        -9.410610689430804
      ],
      [
        "幾個",
        -9.410955893677837
      ],
      [
        "▁months",
        -9.41171540417186
      ],
      [
        "紅",
        -9.413941849893614
      ],
      [
        "▁must",
        -9.414186964324099
      ],
      [
        "rap",
        -9.41421159407035
      ],
      [
        "中國",
        -9.416956192761566
      ],
      [
        "很好",
        -9.41718665506049
      ],
      [
        "裏",
        -9.417321182786509
      ],
      [
        "飛",
        -9.4176062121422
      ],
      [
        "每天",
        -9.417681030623418
      ],
      [
        "log",
        -9.419403860591196
      ],
      [
        "模",
        -9.41972301661634
      ],
      [
        "模式",
        -9.420286159410793
      ],
      [
        "印",
        -9.420289075576179
      ],
      [
        "這件事",
        -9.420446664309434
      ],
      [
        "包括",
        -9.420718264790903
      ],
      [
        "叫做",
        -9.421966098164441
      ],
      [
        "解釋",
        -9.422345465015574
      ],
      [
        "修",
        -9.422411691380972
      ],
      [
        "就可以",
        -9.422568259606102
      ],
      [
        "害",
        -9.422827984292443
      ],
      [
        "▁issue",
        -9.424164619848868
      ],
      [
        "嘗試",
        -9.424839358847798
      ],
      [
        "必",
        -9.425240271562771
      ],
      [
        "消",
        -9.426070964909957
      ],
      [
        "易",
        -9.426885521784456
      ],
      [
        "太陽",
        -9.42704455891366
      ],
      [
        "而言",
        -9.427084984559997
      ],
      [
        "goes",
        -9.427462650134306
      ],
      [
        "派",
        -9.427528245896003
      ],
      [
        "持續",
        -9.427550703823119
      ],
      [
        "rid",
        -9.427620242683385
      ],
      [
        "遊戲",
        -9.42811566680663
      ],
      [
        "勢",
        -9.428668821979615
      ],
      [
        "▁past",
        -9.428833869393635
      ],
      [
        "而且",
        -9.428999841176848
      ],
      [
        "▁exist",
        -9.429177637040475
      ],
      [
        "八",
        -9.429810700462621
      ],
      [
        "機器",
        -9.4302512561192
      ],
      [
        "也會",
        -9.430635422125494
      ],
      [
        "用來",
        -9.430788900129414
      ],
      [
        "part",
        -9.431781341372023
      ],
      [
        "讓你",
        -9.432293960758546
      ],
      [
        "▁challenge",
        -9.432760010626883
      ],
      [
        "行動",
        -9.433032030718767
      ],
      [
        "▁cost",
        -9.433627375244617
      ],
      [
        "▁star",
        -9.43383049204002
      ],
      [
        "義",
        -9.434003369793949
      ],
      [
        "▁cancer",
        -9.43566200611643
      ],
      [
        "理解",
        -9.435856647708178
      ],
      [
        "試著",
        -9.435860489474905
      ],
      [
        "價",
        -9.436040251072221
      ],
      [
        "如果你",
        -9.436799287529407
      ],
      [
        "▁grow",
        -9.436916215251864
      ],
      [
        "冰",
        -9.437840568453073
      ],
      [
        "患",
        -9.438416605319436
      ],
      [
        "▁market",
        -9.439096783551015
      ],
      [
        "▁cur",
        -9.439768870952076
      ],
      [
        "▁amazing",
        -9.440146719655376
      ],
      [
        "概念",
        -9.440227241838466
      ],
      [
        "連結",
        -9.440382745319253
      ],
      [
        "做到",
        -9.440845292999033
      ],
      [
        "11",
        -9.441387305481658
      ],
      [
        "▁meet",
        -9.44204588753408
      ],
      [
        "意思",
        -9.442123365917677
      ],
      [
        "tim",
        -9.443114426476257
      ],
      [
        "付",
        -9.443615923646627
      ],
      [
        "經歷",
        -9.446068090966985
      ],
      [
        "帶來",
        -9.446094657701456
      ],
      [
        "抗",
        -9.44652758095718
      ],
      [
        "看見",
        -9.446625184343524
      ],
      [
        "▁individual",
        -9.447678610493124
      ],
      [
        "受到",
        -9.44768309158857
      ],
      [
        "優",
        -9.448260344056337
      ],
      [
        "北",
        -9.44942482741558
      ],
      [
        "河",
        -9.452341982260338
      ],
      [
        "倍",
        -9.452341982260341
      ],
      [
        "▁guy",
        -9.453283115031226
      ],
      [
        "左",
        -9.454681848718913
      ],
      [
        "板",
        -9.45526767180034
      ],
      [
        "境",
        -9.456364334363826
      ],
      [
        "園",
        -9.458201946121928
      ],
      [
        "職",
        -9.458789835598708
      ],
      [
        "不斷",
        -9.45898929428613
      ],
      [
        "別人",
        -9.45916829456095
      ],
      [
        "▁education",
        -9.459605909153257
      ],
      [
        "歌",
        -9.460555580562131
      ],
      [
        "▁connect",
        -9.46191040190388
      ],
      [
        "配",
        -9.46232444889663
      ],
      [
        "▁micro",
        -9.462360128844507
      ],
      [
        "▁against",
        -9.462720901985513
      ],
      [
        "身上",
        -9.463695877321252
      ],
      [
        "防",
        -9.465279533703374
      ],
      [
        "▁dur",
        -9.46875772465292
      ],
      [
        "▁比如",
        -9.469113685711012
      ],
      [
        "▁force",
        -9.469744915685036
      ],
      [
        "運作",
        -9.469925176046244
      ],
      [
        "街",
        -9.470025908538165
      ],
      [
        "▁value",
        -9.470033394807922
      ],
      [
        "0",
        -9.470869227060067
      ],
      [
        "顯示",
        -9.47190469119843
      ],
      [
        "增加",
        -9.473252384002414
      ],
      [
        "▁pay",
        -9.474028655163726
      ],
      [
        "▁rest",
        -9.474129037526593
      ],
      [
        "not",
        -9.474745863083694
      ],
      [
        "積",
        -9.47539264755708
      ],
      [
        "電影",
        -9.47656266844454
      ],
      [
        "檢",
        -9.477787141296531
      ],
      [
        "▁beautiful",
        -9.4777871414167
      ],
      [
        "題",
        -9.477833504492454
      ],
      [
        "面對",
        -9.478093937627303
      ],
      [
        "跑",
        -9.479586781800256
      ],
      [
        "▁learned",
        -9.480268782986586
      ],
      [
        "雙",
        -9.48138966684972
      ],
      [
        "居",
        -9.482196389472207
      ],
      [
        "▁collect",
        -9.483196293777269
      ],
      [
        "印度",
        -9.483646170837396
      ],
      [
        "病人",
        -9.484071549766185
      ],
      [
        "倫",
        -9.484401717228621
      ],
      [
        "週",
        -9.484401717228625
      ],
      [
        "環",
        -9.484927000800644
      ],
      [
        "▁follow",
        -9.485005238070503
      ],
      [
        "▁everybody",
        -9.48560909002906
      ],
      [
        "▁term",
        -9.485674293643346
      ],
      [
        "或許",
        -9.48571126992526
      ],
      [
        "七",
        -9.486213311871925
      ],
      [
        "廣",
        -9.488584772629919
      ],
      [
        "協助",
        -9.488705135469871
      ],
      [
        "限",
        -9.489116729556127
      ],
      [
        "啊",
        -9.489239948472534
      ],
      [
        "疑",
        -9.489239948472534
      ],
      [
        "que",
        -9.48924555509081
      ],
      [
        "以前",
        -9.489433839783214
      ],
      [
        "通過",
        -9.490397344725938
      ],
      [
        "投",
        -9.491303546558967
      ],
      [
        "句",
        -9.491667870683234
      ],
      [
        "▁oh",
        -9.49211441718875
      ],
      [
        "紙",
        -9.492275773418797
      ],
      [
        "賽",
        -9.492275773418797
      ],
      [
        "議",
        -9.49286922679437
      ],
      [
        "牠",
        -9.493304275753214
      ],
      [
        "▁leave",
        -9.493496215692268
      ],
      [
        "清楚",
        -9.494107587134945
      ],
      [
        "25",
        -9.496427685515464
      ],
      [
        "蓋",
        -9.497152344955673
      ],
      [
        "當中",
        -9.498298515448678
      ],
      [
        "記得",
        -9.499064867327428
      ],
      [
        "規",
        -9.500569885292927
      ],
      [
        "那裡",
        -9.501430158634868
      ],
      [
        "▁cause",
        -9.50439159105321
      ],
      [
        "taking",
        -9.504569187366064
      ],
      [
        "觀察",
        -9.504577798668524
      ],
      [
        "蟲",
        -9.506360512860358
      ],
      [
        "▁drug",
        -9.511313692052722
      ],
      [
        "90",
        -9.511315397663584
      ],
      [
        "▁support",
        -9.511927391733494
      ],
      [
        "▁exactly",
        -9.511927757449124
      ],
      [
        "部份",
        -9.514270512000039
      ],
      [
        "▁clear",
        -9.515042074066276
      ],
      [
        "女孩",
        -9.515816367417699
      ],
      [
        "唯一",
        -9.518020554096125
      ],
      [
        "架",
        -9.518147249434888
      ],
      [
        "初",
        -9.51814724943489
      ],
      [
        "heard",
        -9.5183472670255
      ],
      [
        "準備",
        -9.518919328031501
      ],
      [
        "▁color",
        -9.519434415543222
      ],
      [
        "▁drive",
        -9.51979227573399
      ],
      [
        "within",
        -9.520189428558979
      ],
      [
        "▁super",
        -9.520454495165495
      ],
      [
        "▁rep",
        -9.521916193477677
      ],
      [
        "幸",
        -9.522413394484504
      ],
      [
        "右",
        -9.522524992368732
      ],
      [
        "▁difference",
        -9.523151951710974
      ],
      [
        "第一個",
        -9.523156723689237
      ],
      [
        "200",
        -9.524049208373263
      ],
      [
        "70",
        -9.524154158850761
      ],
      [
        "真實",
        -9.525256006131013
      ],
      [
        "接下來",
        -9.525557777334607
      ],
      [
        "緊",
        -9.52566372679476
      ],
      [
        "▁themselves",
        -9.525663727650356
      ],
      [
        "周",
        -9.52629265761237
      ],
      [
        "人口",
        -9.52632554498944
      ],
      [
        "容",
        -9.526509570882752
      ],
      [
        "辦",
        -9.526548920360735
      ],
      [
        "臉",
        -9.526921984232885
      ],
      [
        "▁society",
        -9.52692198431724
      ],
      [
        "▁safe",
        -9.526930979605197
      ],
      [
        "▁company",
        -9.52755427956943
      ],
      [
        "▁object",
        -9.528181865891957
      ],
      [
        "▁cell",
        -9.528542801647692
      ],
      [
        "mark",
        -9.529231018582928
      ],
      [
        "漸",
        -9.529443258728005
      ],
      [
        "分鐘",
        -9.52975059782924
      ],
      [
        "▁ocean",
        -9.530075750431465
      ],
      [
        "事物",
        -9.530879853239462
      ],
      [
        "曲",
        -9.531338395050252
      ],
      [
        "▁protect",
        -9.532609115752148
      ],
      [
        "▁couple",
        -9.533240754978014
      ],
      [
        "資源",
        -9.533380441278094
      ],
      [
        "彈",
        -9.533870843296
      ],
      [
        "背",
        -9.534421320003789
      ],
      [
        "隻",
        -9.53452879340934
      ],
      [
        "支持",
        -9.537111206573131
      ],
      [
        "▁natural",
        -9.53768168604568
      ],
      [
        "結構",
        -9.537852580335269
      ],
      [
        "▁piece",
        -9.538171521050499
      ],
      [
        "▁bar",
        -9.53878806235636
      ],
      [
        "何",
        -9.538892193082741
      ],
      [
        "餐",
        -9.540230164989975
      ],
      [
        "怎樣",
        -9.540263586100975
      ],
      [
        "破",
        -9.541445532789684
      ],
      [
        "一般",
        -9.541626747467912
      ],
      [
        "ets",
        -9.542241515597565
      ],
      [
        "▁然而",
        -9.542419254334899
      ],
      [
        "▁material",
        -9.542785670997194
      ],
      [
        "▁view",
        -9.542787990322982
      ],
      [
        "母",
        -9.543317715566541
      ],
      [
        "▁built",
        -9.543425586363359
      ],
      [
        "注",
        -9.54352049274377
      ],
      [
        "主要",
        -9.543669249680065
      ],
      [
        "評",
        -9.544705875633738
      ],
      [
        "團",
        -9.544726554673442
      ],
      [
        "跳",
        -9.545988338093238
      ],
      [
        "缺",
        -9.546630186616985
      ],
      [
        "▁front",
        -9.547288859576753
      ],
      [
        "▁listen",
        -9.547350266074659
      ],
      [
        "事實",
        -9.54735384148444
      ],
      [
        "海洋",
        -9.549329144045345
      ],
      [
        "▁personal",
        -9.549452927101878
      ],
      [
        "▁simpl",
        -9.54998441811097
      ],
      [
        "han",
        -9.550055661381887
      ],
      [
        "▁along",
        -9.550493049469116
      ],
      [
        "looked",
        -9.550777923259874
      ],
      [
        "▁decided",
        -9.551312508580171
      ],
      [
        "aid",
        -9.552314475269833
      ],
      [
        "船",
        -9.55371784490825
      ],
      [
        "藥物",
        -9.554148408845613
      ],
      [
        "▁sun",
        -9.555303677334788
      ],
      [
        "根",
        -9.555308709720432
      ],
      [
        "▁hold",
        -9.555447044027463
      ],
      [
        "異",
        -9.555576750264901
      ],
      [
        "領域",
        -9.556325503907772
      ],
      [
        "族",
        -9.557662176301186
      ],
      [
        "年代",
        -9.559614582736021
      ],
      [
        "based",
        -9.560142036357037
      ],
      [
        "產品",
        -9.560376073947273
      ],
      [
        "▁fish",
        -9.56256114522781
      ],
      [
        "▁culture",
        -9.564117959818677
      ],
      [
        "▁focus",
        -9.564131303485876
      ],
      [
        "▁common",
        -9.564949214889428
      ],
      [
        "沙",
        -9.565425295289753
      ],
      [
        "木",
        -9.56607974555153
      ],
      [
        "▁ourselves",
        -9.566079746802169
      ],
      [
        "訊息",
        -9.566136887413236
      ],
      [
        "探",
        -9.566666804339576
      ],
      [
        "房",
        -9.566952531568216
      ],
      [
        "▁produce",
        -9.567703528507042
      ],
      [
        "某些",
        -9.568149756785537
      ],
      [
        "▁species",
        -9.568701846360995
      ],
      [
        "總是",
        -9.56912847466732
      ],
      [
        "離開",
        -9.569831199437886
      ],
      [
        "治",
        -9.57059330638118
      ],
      [
        "▁就是",
        -9.570624010711164
      ],
      [
        "威",
        -9.57067171276215
      ],
      [
        "討論",
        -9.572124771077446
      ],
      [
        "直到",
        -9.572464128316001
      ],
      [
        "寶",
        -9.573307109208642
      ],
      [
        "罪",
        -9.573307109208644
      ],
      [
        "腳",
        -9.574626805822101
      ],
      [
        "根本",
        -9.575610337672853
      ],
      [
        "eah",
        -9.57618800880051
      ],
      [
        "原因",
        -9.576240321694272
      ],
      [
        "▁middle",
        -9.57660966268801
      ],
      [
        "▁nature",
        -9.576787806334966
      ],
      [
        "ative",
        -9.577183032780804
      ],
      [
        "▁experiment",
        -9.578596378479133
      ],
      [
        "迷",
        -9.579259507518959
      ],
      [
        "大概",
        -9.579347952887826
      ],
      [
        "數字",
        -9.581260016707438
      ],
      [
        "演講",
        -9.581694317998751
      ],
      [
        "塔",
        -9.582581769588707
      ],
      [
        "▁short",
        -9.583452593685365
      ],
      [
        "▁america",
        -9.583719975901023
      ],
      [
        "▁phone",
        -9.58400432940499
      ],
      [
        "生產",
        -9.586100007796563
      ],
      [
        "▁solution",
        -9.58725652376614
      ],
      [
        "太空",
        -9.588812261203199
      ],
      [
        "錄",
        -9.589129377099734
      ],
      [
        "▁spend",
        -9.589685923714754
      ],
      [
        "▁break",
        -9.589932834848902
      ],
      [
        "那樣",
        -9.590020314906948
      ],
      [
        "我覺得",
        -9.59014230737519
      ],
      [
        "▁death",
        -9.590212797907972
      ],
      [
        "▁type",
        -9.590943184173925
      ],
      [
        "女人",
        -9.592483357557931
      ],
      [
        "示",
        -9.59426956958656
      ],
      [
        "輸",
        -9.594634141343949
      ],
      [
        "▁universe",
        -9.595308010850232
      ],
      [
        "染",
        -9.59638155551517
      ],
      [
        "▁write",
        -9.597335494575358
      ],
      [
        "ization",
        -9.59735535830464
      ],
      [
        "並沒有",
        -9.598365125448073
      ],
      [
        "索",
        -9.599290616914358
      ],
      [
        "毒",
        -9.599878026035807
      ],
      [
        "父母",
        -9.601062394273587
      ],
      [
        "息",
        -9.601253358707535
      ],
      [
        "spect",
        -9.601282420289351
      ],
      [
        "程式",
        -9.601297063082573
      ],
      [
        "▁deal",
        -9.60211470847927
      ],
      [
        "電話",
        -9.602198111891068
      ],
      [
        "▁ob",
        -9.602789301247512
      ],
      [
        "▁difficult",
        -9.60410967719307
      ],
      [
        "全世界",
        -9.60411930543739
      ],
      [
        "拍",
        -9.60477123368864
      ],
      [
        "▁class",
        -9.60617423262147
      ],
      [
        "夠",
        -9.606488107903775
      ],
      [
        "▁somebody",
        -9.608881345086626
      ],
      [
        "市場",
        -9.610062462166791
      ],
      [
        "簡",
        -9.61007495159475
      ],
      [
        "▁south",
        -9.611807519160354
      ],
      [
        "圍",
        -9.613629694186631
      ],
      [
        "作為",
        -9.61413930663526
      ],
      [
        "▁white",
        -9.614371286476263
      ],
      [
        "曾經",
        -9.614742741826124
      ],
      [
        "爭",
        -9.614905548448608
      ],
      [
        "▁rather",
        -9.615058279379825
      ],
      [
        "可以看到",
        -9.615369387150903
      ],
      [
        "亮",
        -9.615737714733733
      ],
      [
        "仍",
        -9.616182106282956
      ],
      [
        "醫療",
        -9.617138520272256
      ],
      [
        "降",
        -9.618375739795344
      ],
      [
        "頂",
        -9.618493486261952
      ],
      [
        "▁para",
        -9.618664169106218
      ],
      [
        "版",
        -9.619183617386865
      ],
      [
        "骨",
        -9.619183617386865
      ],
      [
        "分子",
        -9.619435292990707
      ],
      [
        "控",
        -9.619751058159494
      ],
      [
        "聚",
        -9.61987422512167
      ],
      [
        "諾",
        -9.620565310125127
      ],
      [
        "▁wait",
        -9.621030937162566
      ],
      [
        "每一個",
        -9.622328889231044
      ],
      [
        "潛",
        -9.622641435355472
      ],
      [
        "huge",
        -9.623256292143502
      ],
      [
        "彼此",
        -9.62406035177558
      ],
      [
        "聖",
        -9.624721879850501
      ],
      [
        "這項",
        -9.62472953712556
      ],
      [
        "移動",
        -9.624897547493088
      ],
      [
        "計",
        -9.625321736026748
      ],
      [
        "哥",
        -9.625416321758617
      ],
      [
        "企業",
        -9.626188817843332
      ],
      [
        "一張",
        -9.626309929801359
      ],
      [
        "▁early",
        -9.62885027850627
      ],
      [
        "艾",
        -9.629593148855072
      ],
      [
        "碼",
        -9.629593148855074
      ],
      [
        "▁arm",
        -9.629906128346963
      ],
      [
        "惡",
        -9.630290985561283
      ],
      [
        "▁emotion",
        -9.630991005028541
      ],
      [
        "▁center",
        -9.63105491359737
      ],
      [
        "裡面",
        -9.63174500538554
      ],
      [
        "▁complex",
        -9.633087999947374
      ],
      [
        "一項",
        -9.633122652250112
      ],
      [
        "輕",
        -9.633640489225002
      ],
      [
        "智",
        -9.6337858630114
      ],
      [
        "當然",
        -9.634651780593366
      ],
      [
        "喜",
        -9.635153528260602
      ],
      [
        "▁economic",
        -9.635891282725108
      ],
      [
        "▁street",
        -9.636599218087454
      ],
      [
        "▁internet",
        -9.637299605831904
      ],
      [
        "ists",
        -9.638682620912473
      ],
      [
        "地區",
        -9.639978611921478
      ],
      [
        "▁behavior",
        -9.640112186192557
      ],
      [
        "首先",
        -9.6404314828896
      ],
      [
        "取得",
        -9.640805828271127
      ],
      [
        "▁doctor",
        -9.640822178552288
      ],
      [
        "置",
        -9.643728140952563
      ],
      [
        "▁risk",
        -9.64467338725417
      ],
      [
        "▁於是",
        -9.645142918353404
      ],
      [
        "▁fear",
        -9.645928592051659
      ],
      [
        "felt",
        -9.646576323804112
      ],
      [
        "服務",
        -9.64660928768632
      ],
      [
        "gue",
        -9.646741503382188
      ],
      [
        "第一次",
        -9.64722574120259
      ],
      [
        "▁third",
        -9.64789711756912
      ],
      [
        "福",
        -9.648607805462632
      ],
      [
        "▁expect",
        -9.649320056182862
      ],
      [
        "▁reach",
        -9.649596865755255
      ],
      [
        "建造",
        -9.650733551248937
      ],
      [
        "麻",
        -9.650743037500467
      ],
      [
        "▁die",
        -9.650818150578587
      ],
      [
        "團隊",
        -9.650839459060627
      ],
      [
        "媒體",
        -9.650847020838171
      ],
      [
        "典",
        -9.65216906263715
      ],
      [
        "物質",
        -9.652290600482916
      ],
      [
        "施",
        -9.653597124225808
      ],
      [
        "站",
        -9.654731318708357
      ],
      [
        "狀",
        -9.65476492718247
      ],
      [
        "▁relationship",
        -9.65502722846064
      ],
      [
        "散",
        -9.655743047704586
      ],
      [
        "▁blood",
        -9.656459422240443
      ],
      [
        "懷",
        -9.657893586075723
      ],
      [
        "局",
        -9.657893586075723
      ],
      [
        "▁near",
        -9.658288118080566
      ],
      [
        "▁voice",
        -9.659359326509243
      ],
      [
        "律",
        -9.660117900672034
      ],
      [
        "免",
        -9.661458538733482
      ],
      [
        "班",
        -9.661488126096058
      ],
      [
        "困難",
        -9.661700013209781
      ],
      [
        "負",
        -9.661920630020353
      ],
      [
        "肉",
        -9.66220858719116
      ],
      [
        "永遠",
        -9.662995629235288
      ],
      [
        "▁eat",
        -9.663796086475378
      ],
      [
        "退",
        -9.665095633459435
      ],
      [
        "▁teach",
        -9.666431728873757
      ],
      [
        "▁effect",
        -9.666732508522404
      ],
      [
        "▁finally",
        -9.667329759045208
      ],
      [
        "第",
        -9.667353214501222
      ],
      [
        "▁population",
        -9.667991040206003
      ],
      [
        "▁green",
        -9.66808558287906
      ],
      [
        "程度",
        -9.668244108427915
      ],
      [
        "嗯",
        -9.669441891469297
      ],
      [
        "投資",
        -9.669570455924724
      ],
      [
        "知識",
        -9.669603040335488
      ],
      [
        "基礎",
        -9.671622124797914
      ],
      [
        "壓",
        -9.671786471023918
      ],
      [
        "東",
        -9.672141880826178
      ],
      [
        "時代",
        -9.672293192620891
      ],
      [
        "▁local",
        -9.672467433120978
      ],
      [
        "料",
        -9.67290885120902
      ],
      [
        "direct",
        -9.67553333448248
      ],
      [
        "技",
        -9.675854142280311
      ],
      [
        "ade",
        -9.676474713217793
      ],
      [
        "▁choice",
        -9.677459511092447
      ],
      [
        "▁full",
        -9.67781808805102
      ],
      [
        "理論",
        -9.678451097650715
      ],
      [
        "美元",
        -9.67856110567027
      ],
      [
        "願",
        -9.679365696256248
      ],
      [
        "相關",
        -9.679574299498544
      ],
      [
        "thousands",
        -9.680076244100057
      ],
      [
        "戰爭",
        -9.681255300315717
      ],
      [
        "偏",
        -9.681859873720875
      ],
      [
        "16",
        -9.68226877661482
      ],
      [
        "直接",
        -9.682497722961216
      ],
      [
        "紐約",
        -9.682628939494053
      ],
      [
        "▁dream",
        -9.683337868906058
      ],
      [
        "14",
        -9.684094344089072
      ],
      [
        "bel",
        -9.68443714638052
      ],
      [
        "戶",
        -9.684804299712233
      ],
      [
        "皮",
        -9.68553159270537
      ],
      [
        "▁decision",
        -9.686280266916171
      ],
      [
        "▁least",
        -9.686289277671158
      ],
      [
        "睡",
        -9.687018322656375
      ],
      [
        "▁access",
        -9.687018504287584
      ],
      [
        "▁structure",
        -9.688497067085992
      ],
      [
        "▁outside",
        -9.688796501155007
      ],
      [
        "17",
        -9.689048823774815
      ],
      [
        "類似",
        -9.689508248114699
      ],
      [
        "▁companies",
        -9.689978414217421
      ],
      [
        "▁reality",
        -9.690474782276278
      ],
      [
        "▁cut",
        -9.690514998425204
      ],
      [
        "紀",
        -9.690635675003458
      ],
      [
        "興",
        -9.691382876856185
      ],
      [
        "洞",
        -9.691461128724583
      ],
      [
        "病毒",
        -9.691636155448982
      ],
      [
        "最近",
        -9.691770934410492
      ],
      [
        "票",
        -9.692203519221982
      ],
      [
        "奧",
        -9.692203519221984
      ],
      [
        "困",
        -9.692727849651646
      ],
      [
        "坦",
        -9.692946461272502
      ],
      [
        "▁record",
        -9.69296180342366
      ],
      [
        "▁friend",
        -9.693126290758586
      ],
      [
        "暗",
        -9.695923761436328
      ],
      [
        "手機",
        -9.697318364498354
      ],
      [
        "▁climate",
        -9.697416050635931
      ],
      [
        "♫♫",
        -9.697444273360723
      ],
      [
        "藏",
        -9.698162568237697
      ],
      [
        "form",
        -9.698402985315216
      ],
      [
        "頓",
        -9.698909951388572
      ],
      [
        "壞",
        -9.699586017752706
      ],
      [
        "▁political",
        -9.70040640995953
      ],
      [
        "善",
        -9.701061314585518
      ],
      [
        "順",
        -9.701155462213896
      ],
      [
        "基本上",
        -9.701943881900611
      ],
      [
        "母親",
        -9.702396840976096
      ],
      [
        "甚麼",
        -9.704164706468351
      ],
      [
        "區域",
        -9.705015468642863
      ],
      [
        "男",
        -9.705426670081554
      ],
      [
        "▁present",
        -9.70569985580254
      ],
      [
        "遺",
        -9.707168257197626
      ],
      [
        "混",
        -9.707168257197626
      ],
      [
        "▁impact",
        -9.707509129255893
      ],
      [
        "味",
        -9.70867690816879
      ],
      [
        "最終",
        -9.709663561785192
      ],
      [
        "▁poor",
        -9.711894324306833
      ],
      [
        "雷",
        -9.71245927458013
      ],
      [
        "坐",
        -9.713027732472774
      ],
      [
        "爲",
        -9.713217424693852
      ],
      [
        "▁network",
        -9.713977306214097
      ],
      [
        "變化",
        -9.714293081223005
      ],
      [
        "九",
        -9.715495329897408
      ],
      [
        "稱為",
        -9.715694317770675
      ],
      [
        "表現",
        -9.716868970565603
      ],
      [
        "▁count",
        -9.717016267659252
      ],
      [
        "▁invest",
        -9.717803772608313
      ],
      [
        "序",
        -9.719303407430214
      ],
      [
        "▁fight",
        -9.719771779943105
      ],
      [
        "▁yourself",
        -9.719853846066643
      ],
      [
        "開發",
        -9.720742416135572
      ],
      [
        "▁perhaps",
        -9.72083079667936
      ],
      [
        "暴",
        -9.722562588783173
      ],
      [
        "▁easy",
        -9.72313346130785
      ],
      [
        "engineer",
        -9.723501693979479
      ],
      [
        "▁stay",
        -9.724676400472536
      ],
      [
        "▁gene",
        -9.724693467904412
      ],
      [
        "▁media",
        -9.725131547598117
      ],
      [
        "爸",
        -9.725426656267214
      ],
      [
        "衣",
        -9.725426656267214
      ],
      [
        "編",
        -9.725426656267214
      ],
      [
        "▁behind",
        -9.7254274734333
      ],
      [
        "—",
        -9.726963344930429
      ],
      [
        "領導",
        -9.727195233306283
      ],
      [
        "▁pick",
        -9.728813794843223
      ],
      [
        "賣",
        -9.729272814665038
      ],
      [
        "脫",
        -9.730043824688169
      ],
      [
        "▁perfect",
        -9.730044504296556
      ],
      [
        "什麽",
        -9.730047271379732
      ],
      [
        "傳統",
        -9.730626951185599
      ],
      [
        "瑞",
        -9.730815429626439
      ],
      [
        "需",
        -9.732394951777678
      ],
      [
        "▁manage",
        -9.732805755149545
      ],
      [
        "確實",
        -9.733075888225361
      ],
      [
        "液",
        -9.73313382313064
      ],
      [
        "▁main",
        -9.734181124038418
      ],
      [
        "迫",
        -9.734682410277184
      ],
      [
        "▁field",
        -9.734687420811843
      ],
      [
        "訊",
        -9.735282353693798
      ],
      [
        "製作",
        -9.735292591055394
      ],
      [
        "認識",
        -9.736370977240242
      ],
      [
        "▁buy",
        -9.73695205106131
      ],
      [
        "述",
        -9.73697502297971
      ],
      [
        "複",
        -9.73773785603343
      ],
      [
        "能源",
        -9.737806814622633
      ],
      [
        "增",
        -9.739018355607016
      ],
      [
        "鏡",
        -9.73934259502412
      ],
      [
        "▁minutes",
        -9.740121645325484
      ],
      [
        "▁measure",
        -9.740124048202436
      ],
      [
        "▁father",
        -9.740912957878196
      ],
      [
        "▁cities",
        -9.741549297417023
      ],
      [
        "▁physical",
        -9.741681037354196
      ],
      [
        "英國",
        -9.74229154542872
      ],
      [
        "另外",
        -9.742539763761805
      ],
      [
        "務",
        -9.744612465342396
      ],
      [
        "▁powerful",
        -9.74579388183301
      ],
      [
        "▁movement",
        -9.747190068133907
      ],
      [
        "令",
        -9.747452108080578
      ],
      [
        "二十",
        -9.748495497175352
      ],
      [
        "禮",
        -9.748728680298358
      ],
      [
        "關鍵",
        -9.748804001488923
      ],
      [
        "痛",
        -9.749468364700778
      ],
      [
        "準",
        -9.750949664152719
      ],
      [
        "▁mov",
        -9.752392569845316
      ],
      [
        "▁shape",
        -9.754364382060217
      ],
      [
        "棄",
        -9.755035362286396
      ],
      [
        "形成",
        -9.755756663993914
      ],
      [
        "刺",
        -9.757410660191216
      ],
      [
        "旅",
        -9.758102791499155
      ],
      [
        "▁scale",
        -9.759188252437337
      ],
      [
        "表示",
        -9.75995318511091
      ],
      [
        "▁century",
        -9.760586909187971
      ],
      [
        "▁york",
        -9.760595428029886
      ],
      [
        "第三",
        -9.76098734858746
      ],
      [
        "▁key",
        -9.761222204198283
      ],
      [
        "隱",
        -9.765369316980404
      ],
      [
        "發明",
        -9.765522899352515
      ],
      [
        "實驗室",
        -9.76553632846865
      ],
      [
        "▁seven",
        -9.766372284433299
      ],
      [
        "弱",
        -9.767769318004405
      ],
      [
        "擴",
        -9.767769318004406
      ],
      [
        "現今",
        -9.768295457381159
      ],
      [
        "醒",
        -9.769372524674774
      ],
      [
        "越來越",
        -9.76937309838388
      ],
      [
        "▁consider",
        -9.769381576658887
      ],
      [
        "捕",
        -9.77017509289307
      ],
      [
        "伴",
        -9.770175092893071
      ],
      [
        "▁organization",
        -9.770175311612547
      ],
      [
        "▁paper",
        -9.770292098600935
      ],
      [
        "絲",
        -9.770978305744476
      ],
      [
        "診",
        -9.771782164265375
      ],
      [
        "許",
        -9.771796670134052
      ],
      [
        "基本",
        -9.772068731403198
      ],
      [
        "現實",
        -9.772245822661716
      ],
      [
        "▁generation",
        -9.772268182149755
      ],
      [
        "冷",
        -9.773391822473727
      ],
      [
        "功能",
        -9.77339228913749
      ],
      [
        "展示",
        -9.775150739933931
      ],
      [
        "情緒",
        -9.776648269260047
      ],
      [
        "▁pain",
        -9.776967155719966
      ],
      [
        "▁conversation",
        -9.778236433328985
      ],
      [
        "阻",
        -9.779856491100748
      ],
      [
        "管理",
        -9.77988911340913
      ],
      [
        "某種",
        -9.781098624620968
      ],
      [
        "私",
        -9.785547563058138
      ],
      [
        "至少",
        -9.785838588715336
      ],
      [
        "內容",
        -9.78597752238215
      ],
      [
        "▁major",
        -9.786364611613493
      ],
      [
        "植物",
        -9.786935106752928
      ],
      [
        "減少",
        -9.787333838933966
      ],
      [
        "機構",
        -9.790983789263771
      ],
      [
        "驗",
        -9.79161947246196
      ],
      [
        "華",
        -9.792912570285324
      ],
      [
        "警",
        -9.793703979961549
      ],
      [
        "▁slow",
        -9.79377276679394
      ],
      [
        "▁normal",
        -9.79455850408285
      ],
      [
        "▁strong",
        -9.795386165450536
      ],
      [
        "’",
        -9.795481963502864
      ],
      [
        "暴力",
        -9.795985703493965
      ],
      [
        "藍",
        -9.796203400993392
      ],
      [
        "牛",
        -9.796203400993393
      ],
      [
        "證明",
        -9.797378719587991
      ],
      [
        "套",
        -9.79785288580997
      ],
      [
        "筆",
        -9.79785288580997
      ],
      [
        "抱",
        -9.799505095922505
      ],
      [
        "google",
        -9.799505290989813
      ],
      [
        "啟",
        -9.800332225781894
      ],
      [
        "現象",
        -9.800406503371892
      ],
      [
        "事件",
        -9.801553732589234
      ],
      [
        "融",
        -9.801988540765679
      ],
      [
        "根據",
        -9.80286157537345
      ],
      [
        "獲得",
        -9.803550757160227
      ],
      [
        "▁treat",
        -9.803558715694814
      ],
      [
        "監",
        -9.803630730323704
      ],
      [
        "巧",
        -9.803647603680702
      ],
      [
        "訓練",
        -9.80365954346302
      ],
      [
        "訪",
        -9.804478168464758
      ],
      [
        "預測",
        -9.804717186856932
      ],
      [
        "尋找",
        -9.804829345637941
      ],
      [
        "精神",
        -9.805609549540225
      ],
      [
        "▁explain",
        -9.806141373294178
      ],
      [
        "財",
        -9.80697400988262
      ],
      [
        "▁save",
        -9.807100951387053
      ],
      [
        "考",
        -9.807503841164799
      ],
      [
        "壓力",
        -9.807619053042885
      ],
      [
        "祖",
        -9.807807343215952
      ],
      [
        "島",
        -9.808641371572918
      ],
      [
        "賴",
        -9.808641371572918
      ],
      [
        "趣",
        -9.808678475157977
      ],
      [
        "結束",
        -9.808692226091035
      ],
      [
        "懂",
        -9.80947609611382
      ],
      [
        "充滿",
        -9.809562572216151
      ],
      [
        "牙",
        -9.81114763840321
      ],
      [
        "判",
        -9.81114763840321
      ],
      [
        "亂",
        -9.812821979424918
      ],
      [
        "掌",
        -9.813660202392224
      ],
      [
        "測試",
        -9.814738675121522
      ],
      [
        "▁europe",
        -9.81702014397698
      ],
      [
        "共同",
        -9.817098824208635
      ],
      [
        "print",
        -9.817315681987298
      ],
      [
        "▁kill",
        -9.818313175656483
      ],
      [
        "野",
        -9.818704348981816
      ],
      [
        "▁solve",
        -9.819650992446062
      ],
      [
        "縮",
        -9.820391401158762
      ],
      [
        "▁begin",
        -9.820446879344523
      ],
      [
        "▁china",
        -9.821241764996135
      ],
      [
        "▁approach",
        -9.822081309306398
      ],
      [
        "酒",
        -9.822927327979635
      ],
      [
        "▁represent",
        -9.822927354302273
      ],
      [
        "否",
        -9.823154161850198
      ],
      [
        "尺",
        -9.823774068030438
      ],
      [
        "識",
        -9.82483947025186
      ],
      [
        "覆",
        -9.825469702078255
      ],
      [
        "減",
        -9.82615817665543
      ],
      [
        "▁increase",
        -9.826318640499757
      ],
      [
        "育",
        -9.826902790256248
      ],
      [
        "協",
        -9.82706827219789
      ],
      [
        "▁surface",
        -9.827168216410273
      ],
      [
        "▁office",
        -9.827376942110725
      ],
      [
        "佈",
        -9.828018556320991
      ],
      [
        "佛",
        -9.828869620150778
      ],
      [
        "麥",
        -9.829721408907167
      ],
      [
        "倒",
        -9.831427166146995
      ],
      [
        "似乎",
        -9.83146865631415
      ],
      [
        "風險",
        -9.831542145377576
      ],
      [
        "徵",
        -9.832281137111984
      ],
      [
        "新聞",
        -9.832536228323628
      ],
      [
        "▁eight",
        -9.83257323386351
      ],
      [
        "忘",
        -9.833135837966683
      ],
      [
        "竟",
        -9.833135837966683
      ],
      [
        "快樂",
        -9.833207570310861
      ],
      [
        "燈",
        -9.835704332372538
      ],
      [
        "▁attention",
        -9.836563807958566
      ],
      [
        "擔",
        -9.836630810694565
      ],
      [
        "嚴重",
        -9.836867092702946
      ],
      [
        "遍",
        -9.837420334404353
      ],
      [
        "▁blue",
        -9.837457666408792
      ],
      [
        "▁travel",
        -9.83828602068698
      ],
      [
        "並非",
        -9.840235476647452
      ],
      [
        "▁gav",
        -9.840290223326058
      ],
      [
        "獎",
        -9.84086119780208
      ],
      [
        "觀眾",
        -9.841226516462928
      ],
      [
        "老師",
        -9.841438902562246
      ],
      [
        "▁special",
        -9.842586085042981
      ],
      [
        "貝",
        -9.843449637395604
      ],
      [
        "▁wonder",
        -9.843813797216145
      ],
      [
        "圈",
        -9.845178993533807
      ],
      [
        "▁dark",
        -9.845194352545821
      ],
      [
        "▁pattern",
        -9.847778661746736
      ],
      [
        "▁psych",
        -9.84778452505012
      ],
      [
        "姆",
        -9.850385078718379
      ],
      [
        "意味著",
        -9.85038532509381
      ],
      [
        "熟",
        -9.852126480876898
      ],
      [
        "床",
        -9.852998320458415
      ],
      [
        "民主",
        -9.853292919211007
      ],
      [
        "意識",
        -9.8534794240767
      ],
      [
        "創新",
        -9.854634635386851
      ],
      [
        "▁draw",
        -9.854874600254092
      ],
      [
        "持",
        -9.855179088485022
      ],
      [
        "▁happy",
        -9.855618410983794
      ],
      [
        "父親",
        -9.85565531222969
      ],
      [
        "章",
        -9.856493299765665
      ],
      [
        "ray",
        -9.856829597460688
      ],
      [
        "險",
        -9.857237579502236
      ],
      [
        "願意",
        -9.857717299143655
      ],
      [
        "▁condition",
        -9.858245700122993
      ],
      [
        "▁device",
        -9.859125806858062
      ],
      [
        "▁ground",
        -9.860000974171864
      ],
      [
        "估",
        -9.86087927142768
      ],
      [
        "良",
        -9.862639060593635
      ],
      [
        "▁service",
        -9.862639084461918
      ],
      [
        "▁electric",
        -9.862639102588384
      ],
      [
        "▁audience",
        -9.862648024503171
      ],
      [
        "快速",
        -9.862685885480603
      ],
      [
        "實際",
        -9.863885589790328
      ],
      [
        "零",
        -9.864401952077525
      ],
      [
        "予",
        -9.864401952077525
      ],
      [
        "▁chris",
        -9.864405009372375
      ],
      [
        "錯誤",
        -9.864486707766122
      ],
      [
        "洲",
        -9.865051678197762
      ],
      [
        "靜",
        -9.865284564610622
      ],
      [
        "瞭解",
        -9.865299420337
      ],
      [
        "回答",
        -9.865326192697118
      ],
      [
        "▁provide",
        -9.867073677839322
      ],
      [
        "癌症",
        -9.867125042764792
      ],
      [
        "▁bio",
        -9.868249219808622
      ],
      [
        "草",
        -9.868822825479509
      ],
      [
        "婚",
        -9.869709350302205
      ],
      [
        "模型",
        -9.870923269799638
      ],
      [
        "▁notice",
        -9.872403775623601
      ],
      [
        "危險",
        -9.873276935857325
      ],
      [
        "▁film",
        -9.87327817766851
      ],
      [
        "店",
        -9.876829985170119
      ],
      [
        "詩",
        -9.878618094602093
      ],
      [
        "旁",
        -9.879513349749812
      ],
      [
        "延",
        -9.879513349749812
      ],
      [
        "position",
        -9.880410930878131
      ],
      [
        "記憶",
        -9.880436548065212
      ],
      [
        "izing",
        -9.88160905190195
      ],
      [
        "衡",
        -9.883102406748836
      ],
      [
        "▁similar",
        -9.883102406860964
      ],
      [
        "▁potential",
        -9.88310240816274
      ],
      [
        "▁kid",
        -9.884672324071989
      ],
      [
        "友",
        -9.884899460094475
      ],
      [
        "始",
        -9.885376300073528
      ],
      [
        "位置",
        -9.886439836952794
      ],
      [
        "智慧",
        -9.886704479840912
      ],
      [
        "▁medical",
        -9.886914278644852
      ],
      [
        "▁born",
        -9.887723167291654
      ],
      [
        "擬",
        -9.889414420064039
      ],
      [
        "供",
        -9.890083083472323
      ],
      [
        "怪",
        -9.891077888047011
      ],
      [
        "恐懼",
        -9.892136735695654
      ],
      [
        "大多數",
        -9.893050604634901
      ],
      [
        "議題",
        -9.893153598479495
      ],
      [
        "▁path",
        -9.89575717815341
      ],
      [
        "▁beginning",
        -9.895776642571594
      ],
      [
        "村",
        -9.896677274913372
      ],
      [
        "▁absolute",
        -9.89758885195237
      ],
      [
        "▁transform",
        -9.89777403443756
      ],
      [
        "▁對吧",
        -9.899029858757359
      ],
      [
        "毛",
        -9.899414502709883
      ],
      [
        "堂",
        -9.899414502709885
      ],
      [
        "計算",
        -9.901456476133802
      ],
      [
        "▁invent",
        -9.904397058896716
      ],
      [
        "曼",
        -9.904911538613689
      ],
      [
        "遭",
        -9.904911538613693
      ],
      [
        "突然",
        -9.9069860401071
      ],
      [
        "▁operat",
        -9.908214979718522
      ],
      [
        "浪",
        -9.90859308876147
      ],
      [
        "儘",
        -9.908593088761473
      ],
      [
        "廠",
        -9.908593088761474
      ],
      [
        "假設",
        -9.908804410346733
      ],
      [
        "▁civil",
        -9.91228929049634
      ],
      [
        "▁situation",
        -9.914140984261934
      ],
      [
        "▁opportunity",
        -9.915997101713124
      ],
      [
        "任務",
        -9.91605507346875
      ],
      [
        "ria",
        -9.916110290007241
      ],
      [
        "500",
        -9.91809535851526
      ],
      [
        "▁truth",
        -9.918148348928261
      ],
      [
        "觸",
        -9.918193923673634
      ],
      [
        "▁post",
        -9.918205679985633
      ],
      [
        "確定",
        -9.918517607151639
      ],
      [
        "森",
        -9.918686865413965
      ],
      [
        "rai",
        -9.919509418728556
      ],
      [
        "歐",
        -9.919667775448222
      ],
      [
        "導致",
        -9.920938406424838
      ],
      [
        "吸",
        -9.921414982001071
      ],
      [
        "needed",
        -9.92188288698237
      ],
      [
        "告",
        -9.92228545983105
      ],
      [
        "隔",
        -9.92252088950524
      ],
      [
        "興奮",
        -9.922550183304189
      ],
      [
        "list",
        -9.922796553802357
      ],
      [
        "taken",
        -9.923354833170713
      ],
      [
        "傾",
        -9.923456343200282
      ],
      [
        "汽車",
        -9.9244524326356
      ],
      [
        "雜",
        -9.9252708429187
      ],
      [
        "堅",
        -9.925329879911068
      ],
      [
        "登",
        -9.925329879911073
      ],
      [
        "釋",
        -9.925439397447818
      ],
      [
        "舊",
        -9.926267966215008
      ],
      [
        "醫",
        -9.926321386230633
      ],
      [
        "ologist",
        -9.926524733896702
      ],
      [
        "任",
        -9.928098523647915
      ],
      [
        "樓",
        -9.928146782975224
      ],
      [
        "▁flow",
        -9.930128445952022
      ],
      [
        "博",
        -9.931915030404912
      ],
      [
        "爆",
        -9.931915039628475
      ],
      [
        "▁explor",
        -9.93191591095168
      ],
      [
        "狀態",
        -9.932039717398556
      ],
      [
        "秒",
        -9.932859326691737
      ],
      [
        "宣",
        -9.933804506275855
      ],
      [
        "悲",
        -9.933804506275859
      ],
      [
        "損",
        -9.933804506275859
      ],
      [
        "▁extreme",
        -9.934750592490175
      ],
      [
        "洛",
        -9.935697549763933
      ],
      [
        "秘",
        -9.935697549766584
      ],
      [
        "夜",
        -9.936645417065163
      ],
      [
        "▁hospital",
        -9.936645417870672
      ],
      [
        "▁chance",
        -9.937106392143772
      ],
      [
        "似",
        -9.938150079161487
      ],
      [
        "ological",
        -9.938456663714838
      ],
      [
        "臨",
        -9.938715994430213
      ],
      [
        "▁general",
        -9.939608061380902
      ],
      [
        "▁predict",
        -9.940447110649767
      ],
      [
        "ought",
        -9.940938247485652
      ],
      [
        "ology",
        -9.941502592655969
      ],
      [
        "突",
        -9.942063940742011
      ],
      [
        "需求",
        -9.942467656728759
      ],
      [
        "▁alone",
        -9.94310436858528
      ],
      [
        "醫院",
        -9.944351558151434
      ],
      [
        "探索",
        -9.944359809973093
      ],
      [
        "透",
        -9.945074005636435
      ],
      [
        "歐洲",
        -9.945270234947976
      ],
      [
        "▁stage",
        -9.9479512461649
      ],
      [
        "▁trust",
        -9.94865985856236
      ],
      [
        "猜",
        -9.950010770135167
      ],
      [
        "▁current",
        -9.950013006263877
      ],
      [
        "▁auto",
        -9.950588524889685
      ],
      [
        "享",
        -9.951524763446232
      ],
      [
        "▁require",
        -9.951934815815367
      ],
      [
        "款",
        -9.952898163641112
      ],
      [
        "固",
        -9.954827734760652
      ],
      [
        "萊",
        -9.955793918335534
      ],
      [
        "▁smart",
        -9.955797994683778
      ],
      [
        "唱",
        -9.956761036323925
      ],
      [
        "默",
        -9.956761036323929
      ],
      [
        "符",
        -9.956761036323929
      ],
      [
        "屬",
        -9.957070021325972
      ],
      [
        "翻",
        -9.962583468618446
      ],
      [
        "▁character",
        -9.962583917990315
      ],
      [
        "政",
        -9.963472848952014
      ],
      [
        "妳",
        -9.963557178452914
      ],
      [
        "附",
        -9.963557178452916
      ],
      [
        "▁report",
        -9.965254765603547
      ],
      [
        "畢",
        -9.965507447078409
      ],
      [
        "希",
        -9.96637524011338
      ],
      [
        "乾",
        -9.966484009578409
      ],
      [
        "網站",
        -9.966925251587993
      ],
      [
        "▁sleep",
        -9.967468102072008
      ],
      [
        "▁dead",
        -9.967649230620594
      ],
      [
        "帝",
        -9.968440000266174
      ],
      [
        "陸",
        -9.968440000266174
      ],
      [
        "呈現",
        -9.968967043512574
      ],
      [
        "粒",
        -9.969419432195656
      ],
      [
        "聰明",
        -9.969432880317864
      ],
      [
        "記錄",
        -9.969609902190957
      ],
      [
        "▁easi",
        -9.969877131981608
      ],
      [
        "changing",
        -9.970408522349919
      ],
      [
        "歸",
        -9.971381178621407
      ],
      [
        "王",
        -9.97138117862141
      ],
      [
        "袋",
        -9.97236349689253
      ],
      [
        "怕",
        -9.97326586386102
      ],
      [
        "魯",
        -9.973346781061654
      ],
      [
        "輪",
        -9.974331033030154
      ],
      [
        "bri",
        -9.97452985431611
      ],
      [
        "材料",
        -9.975367651077539
      ],
      [
        "宗教",
        -9.97635419447247
      ],
      [
        "苦",
        -9.977231246585674
      ],
      [
        "妙",
        -9.977289614830113
      ],
      [
        "烈",
        -9.977289614830113
      ],
      [
        "漫",
        -9.98124805609349
      ],
      [
        "giving",
        -9.982263597491382
      ],
      [
        "範",
        -9.98416033431503
      ],
      [
        "貴",
        -9.984227204030224
      ],
      [
        "焦",
        -9.984227204030226
      ],
      [
        "術",
        -9.986393866277444
      ],
      [
        "堆",
        -9.987215253815183
      ],
      [
        "糖",
        -9.9882132578072
      ],
      [
        "▁artist",
        -9.988284204813302
      ],
      [
        "▁communities",
        -9.989212271581685
      ],
      [
        "乎",
        -9.990943094173584
      ],
      [
        "牌",
        -9.992215263815215
      ],
      [
        "幻",
        -9.992215263815218
      ],
      [
        "▁message",
        -9.992217249196269
      ],
      [
        "work",
        -9.992250248989183
      ],
      [
        "♪",
        -9.99321827284225
      ],
      [
        "遊",
        -9.995196819408694
      ],
      [
        "迪",
        -9.995227314032181
      ],
      [
        "▁photograph",
        -9.995256984250478
      ],
      [
        "牆",
        -9.996233350249485
      ],
      [
        "▁affect",
        -9.996238045220611
      ],
      [
        "媽媽",
        -9.997252452760858
      ],
      [
        "▁function",
        -9.998250610410079
      ],
      [
        "百分之",
        -9.998256664629091
      ],
      [
        "顆",
        -9.999257545846659
      ],
      [
        "rib",
        -10.000054908642017
      ],
      [
        "碰",
        -10.000267646856756
      ],
      [
        "鳥",
        -10.001278769202571
      ],
      [
        "充",
        -10.002186059029038
      ],
      [
        "▁pull",
        -10.002409620977154
      ],
      [
        "▁strange",
        -10.003313496956075
      ],
      [
        "按",
        -10.00533351338684
      ],
      [
        "/",
        -10.005333513386843
      ],
      [
        "▁sudden",
        -10.006351107847092
      ],
      [
        "繞",
        -10.00838539748631
      ],
      [
        "急",
        -10.009404765478154
      ],
      [
        "▁knowledge",
        -10.009405725441098
      ],
      [
        "滅",
        -10.010425173641417
      ],
      [
        "塞",
        -10.012469118988594
      ],
      [
        "眼睛",
        -10.012472118211578
      ],
      [
        "互",
        -10.015202968319809
      ],
      [
        "▁morning",
        -10.01554305341357
      ],
      [
        "mong",
        -10.018448598542925
      ],
      [
        "毀",
        -10.018626141490326
      ],
      [
        "細菌",
        -10.01974550735205
      ],
      [
        "▁park",
        -10.020790579324037
      ],
      [
        "討",
        -10.02253916660294
      ],
      [
        "瓦",
        -10.022751985038092
      ],
      [
        "鐵",
        -10.02482130788885
      ],
      [
        "計劃",
        -10.024876577532535
      ],
      [
        "▁emerg",
        -10.025004640610165
      ],
      [
        "炸",
        -10.025857577318906
      ],
      [
        "酷",
        -10.027933343316414
      ],
      [
        "替",
        -10.028972844355913
      ],
      [
        "薩",
        -10.028972844355913
      ],
      [
        "▁push",
        -10.028980349235304
      ],
      [
        "especi",
        -10.029967313460261
      ],
      [
        "影",
        -10.030476520194636
      ],
      [
        "含",
        -10.030965084976557
      ],
      [
        "冒",
        -10.031055093748906
      ],
      [
        "▁average",
        -10.032111089981232
      ],
      [
        "愈",
        -10.033141687952593
      ],
      [
        "揮",
        -10.03418662003201
      ],
      [
        "虛",
        -10.03418662003201
      ],
      [
        "吉",
        -10.035232645136611
      ],
      [
        "衝",
        -10.038329151237733
      ],
      [
        "▁revolution",
        -10.039427721697557
      ],
      [
        "▁join",
        -10.039433358925425
      ],
      [
        "勝",
        -10.04153187798599
      ],
      [
        "恩",
        -10.043640471086434
      ],
      [
        "拜",
        -10.045753519747946
      ],
      [
        "禁",
        -10.04681172080615
      ],
      [
        "▁literally",
        -10.047871552364237
      ],
      [
        "略",
        -10.048919986025599
      ],
      [
        "▁specific",
        -10.048931513431688
      ],
      [
        "瑪",
        -10.049993059352374
      ],
      [
        "yearold",
        -10.051060484623447
      ],
      [
        "▁text",
        -10.052266383792485
      ],
      [
        "conscious",
        -10.05531806656811
      ],
      [
        "菌",
        -10.056293421384234
      ],
      [
        "露",
        -10.057455779847125
      ],
      [
        "武",
        -10.057455779847125
      ],
      [
        "額",
        -10.058526443658689
      ],
      [
        "守",
        -10.058526443658689
      ],
      [
        "游",
        -10.058526443658693
      ],
      [
        "究",
        -10.059566666101246
      ],
      [
        "屋",
        -10.059598255019893
      ],
      [
        "勞",
        -10.06067121639328
      ],
      [
        "wouldn't",
        -10.060924890673343
      ],
      [
        "植",
        -10.062067099008447
      ],
      [
        "q",
        -10.062170853344881
      ],
      [
        "操",
        -10.063897025331354
      ],
      [
        "▁serious",
        -10.063908770868682
      ],
      [
        "嚴",
        -10.06459131926949
      ],
      [
        "▁photo",
        -10.064983689787887
      ],
      [
        "▁carbon",
        -10.06822048798092
      ],
      [
        "▁movie",
        -10.069253705344092
      ],
      [
        "▁evolution",
        -10.069296606048102
      ],
      [
        "▁bank",
        -10.069364945705395
      ],
      [
        "▁tiny",
        -10.070416073656705
      ],
      [
        "▁incredible",
        -10.07146464243883
      ],
      [
        "▁response",
        -10.07255040475436
      ],
      [
        "wrote",
        -10.073652631715223
      ],
      [
        "▁road",
        -10.075837129616147
      ],
      [
        "▁modern",
        -10.076906633973195
      ],
      [
        "▁industry",
        -10.07908994516077
      ],
      [
        "封",
        -10.080184028705801
      ],
      [
        "▁digital",
        -10.080184118066299
      ],
      [
        "震",
        -10.081279318957717
      ],
      [
        "▁fundamental",
        -10.083473505549023
      ],
      [
        "耳",
        -10.085672516136519
      ],
      [
        "guys",
        -10.08575320163867
      ],
      [
        "貨",
        -10.086773837722431
      ],
      [
        "介",
        -10.08787607481288
      ],
      [
        "奏",
        -10.087876373554842
      ],
      [
        "劑",
        -10.087876373554842
      ],
      [
        "忙",
        -10.087876373554842
      ],
      [
        "補",
        -10.088980126314222
      ],
      [
        "培",
        -10.088980126314226
      ],
      [
        "雨",
        -10.090085098689915
      ],
      [
        "聊",
        -10.090085098689915
      ],
      [
        "值",
        -10.09053305895377
      ],
      [
        "逐",
        -10.092298713092248
      ],
      [
        "頻",
        -10.093407360542361
      ],
      [
        "蒙",
        -10.094517238455786
      ],
      [
        "逃",
        -10.095628349566901
      ],
      [
        "裂",
        -10.095628349566903
      ],
      [
        "狗",
        -10.095628349566905
      ],
      [
        "銷",
        -10.096740696619182
      ],
      [
        "龍",
        -10.097854282365283
      ],
      [
        "殘",
        -10.10008518099564
      ],
      [
        "憂",
        -10.101202499431391
      ],
      [
        "授",
        -10.101202499431395
      ],
      [
        "黃",
        -10.101202499431395
      ],
      [
        "▁economy",
        -10.101202500258397
      ],
      [
        "途",
        -10.102321067664057
      ],
      [
        "▁practice",
        -10.102321077294274
      ],
      [
        "跨",
        -10.103440888492726
      ],
      [
        "▁eye",
        -10.104353395205383
      ],
      [
        "▁violence",
        -10.106807988259018
      ],
      [
        "繁",
        -10.109058880205893
      ],
      [
        "仰",
        -10.109058880205893
      ],
      [
        "毫",
        -10.11131494409335
      ],
      [
        "beyond",
        -10.111317456864665
      ],
      [
        "贏",
        -10.112444887596173
      ],
      [
        "幅",
        -10.11357610931563
      ],
      [
        "乳",
        -10.113576109315632
      ],
      [
        "循",
        -10.114708612146888
      ],
      [
        "辨",
        -10.114708612146888
      ],
      [
        "▁guess",
        -10.114838662299203
      ],
      [
        "階",
        -10.115751999963479
      ],
      [
        "魔",
        -10.11584239899496
      ],
      [
        "儀",
        -10.116977472774755
      ],
      [
        "沉",
        -10.121530695858075
      ],
      [
        "佳",
        -10.121530695858077
      ],
      [
        "▁won't",
        -10.12267511004154
      ],
      [
        "▁success",
        -10.12308270548084
      ],
      [
        "習",
        -10.125112932938972
      ],
      [
        "town",
        -10.125998154888137
      ],
      [
        "伯",
        -10.126104717644324
      ],
      [
        "載",
        -10.126104745644355
      ],
      [
        "遇",
        -10.126923420016642
      ],
      [
        "碳",
        -10.127251534633416
      ],
      [
        "▁animal",
        -10.12832712681664
      ],
      [
        "▁attack",
        -10.128399868268788
      ],
      [
        "▁agree",
        -10.128759562345987
      ],
      [
        "勒",
        -10.129549065548254
      ],
      [
        "蒂",
        -10.129549065548254
      ],
      [
        "鼠",
        -10.129549065548256
      ],
      [
        "廳",
        -10.130699813534443
      ],
      [
        "ified",
        -10.131898331872513
      ],
      [
        "備",
        -10.132620727299098
      ],
      [
        "休",
        -10.13300528980465
      ],
      [
        "▁suffer",
        -10.133006763905723
      ],
      [
        "省",
        -10.134160024215737
      ],
      [
        "庫",
        -10.136473500987304
      ],
      [
        "蜂",
        -10.136473500987314
      ],
      [
        "奈",
        -10.137632249538866
      ],
      [
        "尊",
        -10.137632249538868
      ],
      [
        "▁running",
        -10.13765285733382
      ],
      [
        "▁camera",
        -10.137726620929943
      ],
      [
        "侵",
        -10.138792342346292
      ],
      [
        "▁evidence",
        -10.139953786309531
      ],
      [
        "▁progress",
        -10.13995379238737
      ],
      [
        "▁clean",
        -10.141128778883342
      ],
      [
        "喔",
        -10.142280717583695
      ],
      [
        "▁feet",
        -10.142319900744337
      ],
      [
        "輯",
        -10.143446218749201
      ],
      [
        "▁touch",
        -10.143653513890282
      ],
      [
        "▁remain",
        -10.144613116369843
      ],
      [
        "▁several",
        -10.144626735217237
      ],
      [
        "槍",
        -10.145781304191786
      ],
      [
        "▁source",
        -10.145809084589303
      ],
      [
        "▁citizen",
        -10.148121857608738
      ],
      [
        "▁eventual",
        -10.149200311060401
      ],
      [
        "丁",
        -10.149294187964973
      ],
      [
        "搞",
        -10.149294187964976
      ],
      [
        "▁member",
        -10.149407827475564
      ],
      [
        "幹",
        -10.150467896885157
      ],
      [
        "顧",
        -10.151524298269408
      ],
      [
        "摩",
        -10.151642985016768
      ],
      [
        "▁suggest",
        -10.15164320374921
      ],
      [
        "所謂的",
        -10.151664940769262
      ],
      [
        "▁solar",
        -10.1518019583819
      ],
      [
        "決",
        -10.152246998926682
      ],
      [
        "▁period",
        -10.152819509886516
      ],
      [
        "▁bottom",
        -10.152819523557199
      ],
      [
        "蘇",
        -10.153997311906537
      ],
      [
        "青",
        -10.155175842153415
      ],
      [
        "鄰",
        -10.155176557189556
      ],
      [
        "既",
        -10.156357194733825
      ],
      [
        "́",
        -10.156357194733829
      ],
      [
        "雅",
        -10.156357194733829
      ],
      [
        "絡",
        -10.15990749390664
      ],
      [
        "▁account",
        -10.159907494817304
      ],
      [
        "革",
        -10.160977294774776
      ],
      [
        "丹",
        -10.161093733527043
      ],
      [
        "獲",
        -10.16123220872349
      ],
      [
        "糟",
        -10.1622746557413
      ],
      [
        "▁journey",
        -10.162281382449237
      ],
      [
        "誌",
        -10.167046131351334
      ],
      [
        "▁technologies",
        -10.167046131351345
      ],
      [
        "麼",
        -10.169200029106275
      ],
      [
        "粉",
        -10.170634651520784
      ],
      [
        "▁including",
        -10.171833693550528
      ],
      [
        "碎",
        -10.173034172480245
      ],
      [
        "▁deliver",
        -10.17423988004036
      ],
      [
        "▁return",
        -10.174964880702584
      ],
      [
        "▁bacteria",
        -10.17664460584218
      ],
      [
        "援",
        -10.177850556886307
      ],
      [
        "▁benefit",
        -10.17785058753127
      ],
      [
        "▁nobod",
        -10.177863560419746
      ],
      [
        "材",
        -10.178995278940704
      ],
      [
        "剩",
        -10.179058286354906
      ],
      [
        "▁medicine",
        -10.17905837791748
      ],
      [
        "▁secret",
        -10.179058735566871
      ],
      [
        "耗",
        -10.18026747619771
      ],
      [
        "fir",
        -10.181170954971336
      ],
      [
        "戴",
        -10.181478129950738
      ],
      [
        "殖",
        -10.18147812995074
      ],
      [
        "▁speed",
        -10.1828021103805
      ],
      [
        "▁east",
        -10.183746012453614
      ],
      [
        "練",
        -10.183886379819157
      ],
      [
        "▁visual",
        -10.183961354737606
      ],
      [
        "▁store",
        -10.186301335178342
      ],
      [
        "撞",
        -10.1875534820333
      ],
      [
        "▁police",
        -10.188775718845454
      ],
      [
        "▁university",
        -10.191216490314616
      ],
      [
        "勇",
        -10.193665969741108
      ],
      [
        "▁college",
        -10.19366598006477
      ],
      [
        "▁concept",
        -10.193667089258305
      ],
      [
        "▁appear",
        -10.193676188828912
      ],
      [
        "degree",
        -10.193676213821828
      ],
      [
        "箱",
        -10.19489296360614
      ],
      [
        "抵",
        -10.194892963606142
      ],
      [
        "▁threat",
        -10.196139992744495
      ],
      [
        "盤",
        -10.197351477134763
      ],
      [
        "丟",
        -10.197351477134765
      ],
      [
        "傑",
        -10.197351477134767
      ],
      [
        "▁institution",
        -10.198583004919618
      ],
      [
        "肯",
        -10.199617655855167
      ],
      [
        "泡",
        -10.19981604985105
      ],
      [
        "托",
        -10.201050617752285
      ],
      [
        "▁region",
        -10.20109106362272
      ],
      [
        "抽",
        -10.202286711695422
      ],
      [
        "劃",
        -10.20345825545626
      ],
      [
        "圓",
        -10.2035243354578
      ],
      [
        "香",
        -10.2035243354578
      ],
      [
        "城",
        -10.205822993764805
      ],
      [
        "▁choose",
        -10.206004635280372
      ],
      [
        "徑",
        -10.207246423644712
      ],
      [
        "貼",
        -10.207246423644715
      ],
      [
        "滑",
        -10.212230856995408
      ],
      [
        "wood",
        -10.21223206503031
      ],
      [
        "司",
        -10.214443996228706
      ],
      [
        "抓",
        -10.214732421450963
      ],
      [
        "▁screen",
        -10.215985701818052
      ],
      [
        "▁multi",
        -10.21714711846554
      ],
      [
        "塑",
        -10.217219850591007
      ],
      [
        "▁express",
        -10.217240292337102
      ],
      [
        "參",
        -10.217587957292903
      ],
      [
        "搜",
        -10.218496540834373
      ],
      [
        "擺",
        -10.218496540834373
      ],
      [
        "莉",
        -10.218496540834375
      ],
      [
        "洗",
        -10.219754402469597
      ],
      [
        "▁prevent",
        -10.219823458771309
      ],
      [
        "蛋",
        -10.223537482435274
      ],
      [
        "浮",
        -10.223537508623966
      ],
      [
        "災",
        -10.22353750862397
      ],
      [
        "▁please",
        -10.22353809000041
      ],
      [
        "航",
        -10.224801731127126
      ],
      [
        "股",
        -10.224801731127126
      ],
      [
        "弟",
        -10.22480173112713
      ],
      [
        "▁english",
        -10.226067554466987
      ],
      [
        "伸",
        -10.228604016567871
      ],
      [
        "肌",
        -10.228604016567873
      ],
      [
        "篇",
        -10.228604016567875
      ],
      [
        "鄉",
        -10.231146929229412
      ],
      [
        "▁subject",
        -10.231147040642151
      ],
      [
        "歡",
        -10.232355405472926
      ],
      [
        "▁describe",
        -10.232420821132067
      ],
      [
        "廢",
        -10.234973463991984
      ],
      [
        "▁families",
        -10.234973465840458
      ],
      [
        "忽",
        -10.236252236370502
      ],
      [
        "produc",
        -10.237459368825613
      ],
      [
        "弄",
        -10.237532646101617
      ],
      [
        "▁village",
        -10.238814866480222
      ],
      [
        "凡",
        -10.240098394431168
      ],
      [
        "世界各地",
        -10.24065050596436
      ],
      [
        "榮",
        -10.241383741474866
      ],
      [
        "▁further",
        -10.241383745564452
      ],
      [
        "▁except",
        -10.24138490442766
      ],
      [
        "▁female",
        -10.243959640589651
      ],
      [
        "娜",
        -10.245249725136327
      ],
      [
        "尾",
        -10.245249725136329
      ],
      [
        "▁stress",
        -10.245252751140558
      ],
      [
        "▁depend",
        -10.245545781977736
      ],
      [
        "蹤",
        -10.246541714800411
      ],
      [
        "呼",
        -10.247786223070658
      ],
      [
        "▁achieve",
        -10.247837790047502
      ],
      [
        "癌",
        -10.249023881392166
      ],
      [
        "▁chemical",
        -10.249132546731108
      ],
      [
        "▁writing",
        -10.251726482891915
      ],
      [
        "朗",
        -10.25302682092573
      ],
      [
        "拒",
        -10.253026820925733
      ],
      [
        "▁molecule",
        -10.253026829511587
      ],
      [
        "握",
        -10.254328904259065
      ],
      [
        "▁capital",
        -10.254338325074784
      ],
      [
        "誤",
        -10.255507361707998
      ],
      [
        "▁necessar",
        -10.256938186731901
      ],
      [
        "僅",
        -10.258765977558703
      ],
      [
        "硬",
        -10.25955425831863
      ],
      [
        "旋",
        -10.260864874308144
      ],
      [
        "繪",
        -10.260864874308146
      ],
      [
        "▁president",
        -10.262177276845076
      ],
      [
        "佔",
        -10.26349127071293
      ],
      [
        "▁favorite",
        -10.26349127075812
      ],
      [
        "▁observ",
        -10.263494164268913
      ],
      [
        "』",
        -10.264807060186612
      ],
      [
        "髮",
        -10.264807060186616
      ],
      [
        "▁bird",
        -10.264814170552903
      ],
      [
        "烏",
        -10.266124583243265
      ],
      [
        "描",
        -10.267384741195531
      ],
      [
        "『",
        -10.267443844456986
      ],
      [
        "plants",
        -10.268200361282847
      ],
      [
        "尚",
        -10.270087599742752
      ],
      [
        "洋",
        -10.275132788066957
      ],
      [
        "黨",
        -10.27539617148334
      ],
      [
        "▁scientific",
        -10.275396171483994
      ],
      [
        "續",
        -10.27663886516899
      ],
      [
        "燒",
        -10.27672772940611
      ],
      [
        "緣",
        -10.276727729406112
      ],
      [
        "▁virus",
        -10.278072382503794
      ],
      [
        "購",
        -10.27939617622409
      ],
      [
        "貧",
        -10.280700458942789
      ],
      [
        "gram",
        -10.282618847225622
      ],
      [
        "據",
        -10.282871435258745
      ],
      [
        "頁",
        -10.283412245279212
      ],
      [
        "池",
        -10.283412245279216
      ],
      [
        "驅",
        -10.283412245279216
      ],
      [
        "▁birth",
        -10.28341365619937
      ],
      [
        "▁detect",
        -10.284770423289945
      ],
      [
        "擾",
        -10.286098613179915
      ],
      [
        "▁bodies",
        -10.286109979401282
      ],
      [
        "稍",
        -10.2874445082001
      ],
      [
        "促",
        -10.2874445082001
      ],
      [
        "▁incredibly",
        -10.287444508200815
      ],
      [
        "桌",
        -10.290141744760298
      ],
      [
        "▁accept",
        -10.290141887750334
      ],
      [
        "敢",
        -10.291493096111648
      ],
      [
        "跡",
        -10.292846276084585
      ],
      [
        "葉",
        -10.295558141737837
      ],
      [
        "偶",
        -10.295558141737843
      ],
      [
        "氧",
        -10.298277381605612
      ],
      [
        "▁memory",
        -10.299643403336756
      ],
      [
        "荷",
        -10.301004035908086
      ],
      [
        "審",
        -10.302370156126663
      ],
      [
        "折",
        -10.302370156126667
      ],
      [
        "▁international",
        -10.302370193543293
      ],
      [
        "‧",
        -10.303738145182757
      ],
      [
        "茲",
        -10.306479750308934
      ],
      [
        "岸",
        -10.306479750308934
      ],
      [
        "▁cross",
        -10.306483236915964
      ],
      [
        "▁biggest",
        -10.30648599465258
      ],
      [
        "搭",
        -10.307853376682562
      ],
      [
        "戀",
        -10.307853376682562
      ],
      [
        "朝",
        -10.309228892500993
      ],
      [
        "純",
        -10.310606302969308
      ],
      [
        "夏",
        -10.310606302969312
      ],
      [
        "怒",
        -10.310606302969312
      ],
      [
        "▁intelligence",
        -10.310606302976753
      ],
      [
        "▁security",
        -10.31198561441871
      ],
      [
        "▁receive",
        -10.311993873661685
      ],
      [
        "▁shift",
        -10.312034025069437
      ],
      [
        "陷",
        -10.313366828783753
      ],
      [
        "▁colleague",
        -10.313366828789366
      ],
      [
        "喝",
        -10.314749954648207
      ],
      [
        "污",
        -10.314749954648207
      ],
      [
        "▁reduce",
        -10.314808084068973
      ],
      [
        "賺",
        -10.317521958751463
      ],
      [
        "▁magic",
        -10.317890768262009
      ],
      [
        "緩",
        -10.318910847640348
      ],
      [
        "▁worse",
        -10.318916855020722
      ],
      [
        "陰",
        -10.320301668224499
      ],
      [
        "▁equal",
        -10.321671411400999
      ],
      [
        "▁employ",
        -10.321694430635638
      ],
      [
        "疫",
        -10.324482674944779
      ],
      [
        "迎",
        -10.324485774068826
      ],
      [
        "寄",
        -10.324485774068826
      ],
      [
        "▁daughter",
        -10.324486059724622
      ],
      [
        "答",
        -10.325372642436975
      ],
      [
        "恐",
        -10.325876779388398
      ],
      [
        "批",
        -10.325884375467432
      ],
      [
        "▁available",
        -10.325884387863125
      ],
      [
        "彩",
        -10.327284935691518
      ],
      [
        "繫",
        -10.32728493569152
      ],
      [
        "script",
        -10.32750284655266
      ],
      [
        "窮",
        -10.3314641102372
      ],
      [
        "鬱",
        -10.33149842437862
      ],
      [
        "孤",
        -10.332906875082847
      ],
      [
        "療",
        -10.334198636166175
      ],
      [
        "谷",
        -10.334317312318387
      ],
      [
        "舒",
        -10.33431731231839
      ],
      [
        "健",
        -10.335711777689838
      ],
      [
        "漂",
        -10.338560599448824
      ],
      [
        "▁task",
        -10.341176236904797
      ],
      [
        "橋",
        -10.34139949371059
      ],
      [
        "遞",
        -10.34139949371059
      ],
      [
        "儲",
        -10.34139949371059
      ],
      [
        "▁publish",
        -10.341399494032178
      ],
      [
        "▁respond",
        -10.341399507270376
      ],
      [
        "雪",
        -10.342821968817285
      ],
      [
        "▁poverty",
        -10.344246599286162
      ],
      [
        "脈",
        -10.345673003765313
      ],
      [
        "雲",
        -10.345673003765315
      ],
      [
        "▁pressure",
        -10.345673478958801
      ],
      [
        "般",
        -10.346833397963696
      ],
      [
        "志",
        -10.347101575193882
      ],
      [
        "▁mountain",
        -10.34710186351062
      ],
      [
        "埃",
        -10.348532190358402
      ],
      [
        "歷",
        -10.349847313900307
      ],
      [
        "▁positive",
        -10.349964878172361
      ],
      [
        "末",
        -10.352836356953604
      ],
      [
        "兵",
        -10.354275205874465
      ],
      [
        "乏",
        -10.355716128064671
      ],
      [
        "▁surprise",
        -10.355716131187652
      ],
      [
        "獵",
        -10.357159129507671
      ],
      [
        "▁crazy",
        -10.35715913211369
      ],
      [
        "graph",
        -10.357666644449775
      ],
      [
        "鼓",
        -10.358574898607957
      ],
      [
        "乘",
        -10.35860421621287
      ],
      [
        "鬥",
        -10.361500669578087
      ],
      [
        "▁perspective",
        -10.361500864140584
      ],
      [
        "▁occur",
        -10.361501343298894
      ],
      [
        "研",
        -10.362909264801427
      ],
      [
        "▁everywhere",
        -10.362952053738208
      ],
      [
        "肥",
        -10.36440553676005
      ],
      [
        "妹",
        -10.367318866783261
      ],
      [
        "taught",
        -10.3673190115629
      ],
      [
        "▁thousand",
        -10.36940546179137
      ],
      [
        "珍",
        -10.370240709101953
      ],
      [
        "▁author",
        -10.370241206307991
      ],
      [
        "▁element",
        -10.370247381250103
      ],
      [
        "▁student",
        -10.370808633395823
      ],
      [
        "爬",
        -10.371704837945293
      ],
      [
        "▁freedom",
        -10.373175002078096
      ],
      [
        "掃",
        -10.376110130621614
      ],
      [
        "▁john",
        -10.376110143017508
      ],
      [
        "▁expert",
        -10.376117304019475
      ],
      [
        "莎",
        -10.377582884671689
      ],
      [
        "淨",
        -10.377582884671693
      ],
      [
        "您",
        -10.38201420574065
      ],
      [
        "售",
        -10.38349568722213
      ],
      [
        "▁survive",
        -10.383495714573835
      ],
      [
        "仔",
        -10.384979366747352
      ],
      [
        "▁inspire",
        -10.385008336060961
      ],
      [
        "麗",
        -10.386281372956503
      ],
      [
        "煩",
        -10.386465250848387
      ],
      [
        "▁address",
        -10.390937761128523
      ],
      [
        "▁quality",
        -10.396929522015032
      ],
      [
        "戲",
        -10.398386843609426
      ],
      [
        "館",
        -10.401446727424316
      ],
      [
        "誠",
        -10.402957375679847
      ],
      [
        "▁release",
        -10.402958615586847
      ],
      [
        "飲",
        -10.404470234983929
      ],
      [
        "察",
        -10.405767681840917
      ],
      [
        "椅",
        -10.405985386499072
      ],
      [
        "﹐",
        -10.40598538649908
      ],
      [
        "▁conflict",
        -10.405985427165854
      ],
      [
        "▁concern",
        -10.40598596184807
      ],
      [
        "疾",
        -10.407311069997174
      ],
      [
        "▁ultimate",
        -10.407502908284798
      ],
      [
        "校",
        -10.408544967275473
      ],
      [
        "厭",
        -10.409022594020838
      ],
      [
        "▁constant",
        -10.409027715001912
      ],
      [
        "統",
        -10.411567356953576
      ],
      [
        "尖",
        -10.412069054279963
      ],
      [
        "肢",
        -10.413595771837212
      ],
      [
        "邦",
        -10.413595771837215
      ],
      [
        "軌",
        -10.415124823824984
      ],
      [
        "孕",
        -10.415124823824984
      ],
      [
        "莫",
        -10.416656217393134
      ],
      [
        "▁anybody",
        -10.41818997667589
      ],
      [
        "▁software",
        -10.421264519741506
      ],
      [
        "▁evolve",
        -10.421264612880567
      ],
      [
        "暫",
        -10.422805351622477
      ],
      [
        "▁impossible",
        -10.422805351776592
      ],
      [
        "避",
        -10.428928790346546
      ],
      [
        "餘",
        -10.428992531766117
      ],
      [
        "▁collaborat",
        -10.428992532483182
      ],
      [
        "郵",
        -10.43054532679717
      ],
      [
        "訴",
        -10.433529485792452
      ],
      [
        "loved",
        -10.43379021181472
      ],
      [
        "辯",
        -10.435218231551765
      ],
      [
        "暖",
        -10.435218231551765
      ],
      [
        "兄",
        -10.435218231551769
      ],
      [
        "勵",
        -10.438313925645524
      ],
      [
        "▁context",
        -10.43834571613477
      ],
      [
        "鐘",
        -10.439149595604782
      ],
      [
        "▁democracy",
        -10.43991307489977
      ],
      [
        "蛋白質",
        -10.441482966176654
      ],
      [
        "響",
        -10.443011211722443
      ],
      [
        "眠",
        -10.443055260654544
      ],
      [
        "敗",
        -10.44451673020271
      ],
      [
        "酸",
        -10.444630063804151
      ],
      [
        "磁",
        -10.444630063804151
      ],
      [
        "耶",
        -10.444630063804155
      ],
      [
        "▁algorithm",
        -10.446207350870488
      ],
      [
        "▁critical",
        -10.446250902192066
      ],
      [
        "軟",
        -10.44665289044846
      ],
      [
        "寬",
        -10.449369408182369
      ],
      [
        "齡",
        -10.449369408182374
      ],
      [
        "▁dangerous",
        -10.449369409421134
      ],
      [
        "閉",
        -10.45095415927901
      ],
      [
        "殊",
        -10.450954194236257
      ],
      [
        "菜",
        -10.452541495823557
      ],
      [
        "▁increasing",
        -10.452541497316357
      ],
      [
        "▁target",
        -10.452541680974466
      ],
      [
        "童",
        -10.455581212681075
      ],
      [
        "袖",
        -10.457318573962432
      ],
      [
        "▁principle",
        -10.458916018071772
      ],
      [
        "moved",
        -10.459874675302316
      ],
      [
        "振",
        -10.462118582154451
      ],
      [
        "喬",
        -10.462118582154453
      ],
      [
        "▁typical",
        -10.462131805170515
      ],
      [
        "鬆",
        -10.46372371859105
      ],
      [
        "▁circu",
        -10.46855466983194
      ],
      [
        "▁include",
        -10.47017024475818
      ],
      [
        "夢",
        -10.47159396542789
      ],
      [
        "蟻",
        -10.471788276679437
      ],
      [
        "徒",
        -10.471788276679437
      ],
      [
        "踏",
        -10.473409022222384
      ],
      [
        "▁written",
        -10.473409024720098
      ],
      [
        "▁construct",
        -10.4734090404194
      ],
      [
        "宜",
        -10.475032398845759
      ],
      [
        "▁purpose",
        -10.478287188683549
      ],
      [
        "▁effort",
        -10.479918411123933
      ],
      [
        "故",
        -10.480246910151573
      ],
      [
        "功",
        -10.480877023447505
      ],
      [
        "仿",
        -10.481552387899452
      ],
      [
        "▁launch",
        -10.481554701379881
      ],
      [
        "俄",
        -10.48318904911058
      ],
      [
        "干",
        -10.483189049110582
      ],
      [
        "惑",
        -10.483189049110582
      ],
      [
        "▁contribut",
        -10.483189050491504
      ],
      [
        "▁cloud",
        -10.483189093732381
      ],
      [
        "腿",
        -10.484828393372876
      ],
      [
        "▁advance",
        -10.484828624215691
      ],
      [
        "▁discuss",
        -10.484829120931973
      ],
      [
        "▁financial",
        -10.486470429575382
      ],
      [
        "偷",
        -10.488115166339774
      ],
      [
        "▁somewhere",
        -10.488115177536429
      ],
      [
        "▁skills",
        -10.488115243849592
      ],
      [
        "•",
        -10.491412777814267
      ],
      [
        "胎",
        -10.491412777814267
      ],
      [
        "捐",
        -10.49306567037625
      ],
      [
        "▁reflect",
        -10.49306597131084
      ],
      [
        "▁exciting",
        -10.494721374333068
      ],
      [
        "帳",
        -10.498040803876133
      ],
      [
        "▁relative",
        -10.498041643279386
      ],
      [
        "▁excited",
        -10.504713116319795
      ],
      [
        "啦",
        -10.50638809581412
      ],
      [
        "午",
        -10.506388095814136
      ],
      [
        "凱",
        -10.506388095814142
      ],
      [
        "刑",
        -10.508065948163134
      ],
      [
        "輛",
        -10.508065948163138
      ],
      [
        "譜",
        -10.509746620432043
      ],
      [
        "喪",
        -10.509746620432043
      ],
      [
        "窗",
        -10.511430122115545
      ],
      [
        "▁chinese",
        -10.511430579098525
      ],
      [
        "針",
        -10.511802600137065
      ],
      [
        "憤",
        -10.514805651945544
      ],
      [
        "▁significant",
        -10.514805652121488
      ],
      [
        "▁compassion",
        -10.516497739473298
      ],
      [
        "械",
        -10.518192614577105
      ],
      [
        "搬",
        -10.518192614577107
      ],
      [
        "▁muscle",
        -10.518192687245778
      ],
      [
        "▁policy",
        -10.518193437311378
      ],
      [
        "慮",
        -10.521536005419225
      ],
      [
        "甲",
        -10.523294665231262
      ],
      [
        "▁activity",
        -10.523295091373114
      ],
      [
        "歧",
        -10.5250011498729
      ],
      [
        "辦公室",
        -10.525001226254902
      ],
      [
        "壁",
        -10.530138146215634
      ],
      [
        "▁complicated",
        -10.530138271819297
      ],
      [
        "障",
        -10.531842516992977
      ],
      [
        "潮",
        -10.53357752966992
      ],
      [
        "秀",
        -10.535301667600953
      ],
      [
        "悉",
        -10.535301667600958
      ],
      [
        "▁afford",
        -10.538759140919437
      ],
      [
        "脆",
        -10.540491989376969
      ],
      [
        "豐",
        -10.54049198937697
      ],
      [
        "聞",
        -10.543447703366041
      ],
      [
        "涉",
        -10.543967230922867
      ],
      [
        "偵",
        -10.54745459189969
      ],
      [
        "幼",
        -10.54745459189969
      ],
      [
        "敏",
        -10.549202843647944
      ],
      [
        "▁enjoy",
        -10.54920284601116
      ],
      [
        "辛",
        -10.550954157133056
      ],
      [
        "壯",
        -10.550954157133056
      ],
      [
        "蜜",
        -10.554466012342253
      ],
      [
        "累",
        -10.554466012342257
      ],
      [
        "貓",
        -10.554466012342264
      ],
      [
        "▁nuclear",
        -10.556226576642896
      ],
      [
        "銀",
        -10.557220212994093
      ],
      [
        "誕",
        -10.557990244152872
      ],
      [
        "盟",
        -10.557990244152876
      ],
      [
        "陣",
        -10.557990244152876
      ],
      [
        "嚇",
        -10.557990244152876
      ],
      [
        "永",
        -10.559560613804535
      ],
      [
        "▁distribut",
        -10.55975702983864
      ],
      [
        "候",
        -10.562810152510107
      ],
      [
        "鞋",
        -10.563299989754984
      ],
      [
        "遜",
        -10.565076188689266
      ],
      [
        "蚊",
        -10.57042379359988
      ],
      [
        "搖",
        -10.574004817060874
      ],
      [
        "串",
        -10.574004817060878
      ],
      [
        "奶",
        -10.577598710348399
      ],
      [
        "壽",
        -10.577598710348399
      ],
      [
        "席",
        -10.579400512150201
      ],
      [
        "▁temperature",
        -10.579400512151764
      ],
      [
        "陽",
        -10.580932494543362
      ],
      [
        "▁spirit",
        -10.581205682320068
      ],
      [
        "臂",
        -10.58301388456584
      ],
      [
        "際",
        -10.583703774620155
      ],
      [
        "慈",
        -10.584825478768735
      ],
      [
        "▁refugee",
        -10.58482547889199
      ],
      [
        "▁cultural",
        -10.584825478983811
      ],
      [
        "▁neighbor",
        -10.586640359162178
      ],
      [
        "荒",
        -10.590280036244362
      ],
      [
        "▁influence",
        -10.590280063437298
      ],
      [
        "徹",
        -10.593933007327507
      ],
      [
        "鎮",
        -10.593933007327509
      ],
      [
        "執",
        -10.595013555727288
      ],
      [
        "疊",
        -10.59576450915901
      ],
      [
        "藉",
        -10.597427436792652
      ],
      [
        "賞",
        -10.59759937154433
      ],
      [
        "拼",
        -10.597599371544334
      ],
      [
        "哲",
        -10.59943760683845
      ],
      [
        "▁consequence",
        -10.599437607419802
      ],
      [
        "▁beauty",
        -10.599437799175732
      ],
      [
        "譯",
        -10.601279227464598
      ],
      [
        "肺",
        -10.601279227464603
      ],
      [
        "盒",
        -10.603124245914781
      ],
      [
        "▁identity",
        -10.603124574506793
      ],
      [
        "擁",
        -10.604437590048214
      ],
      [
        "麵",
        -10.608679814171698
      ],
      [
        "閃",
        -10.608679814171701
      ],
      [
        "琴",
        -10.610538550231173
      ],
      [
        "招",
        -10.610538550231176
      ],
      [
        "帕",
        -10.610538550231182
      ],
      [
        "efficient",
        -10.610538550252901
      ],
      [
        "朵",
        -10.612400747624102
      ],
      [
        "▁physics",
        -10.612400748567687
      ],
      [
        "craft",
        -10.612401299024636
      ],
      [
        "奴",
        -10.614266419265896
      ],
      [
        "覽",
        -10.616135578144402
      ],
      [
        "麽",
        -10.617999861297726
      ],
      [
        "泰",
        -10.619884409928307
      ],
      [
        "貌",
        -10.619884409928307
      ],
      [
        "趨",
        -10.619884409928307
      ],
      [
        "季",
        -10.619884409928307
      ],
      [
        "漠",
        -10.62364734834781
      ],
      [
        "▁ancient",
        -10.623647439689854
      ],
      [
        "菲",
        -10.629318439362812
      ],
      [
        "▁politics",
        -10.629318439697798
      ],
      [
        "雞",
        -10.631215972569645
      ],
      [
        "孔",
        -10.631215972569645
      ],
      [
        "comfortable",
        -10.631215972599668
      ],
      [
        "敵",
        -10.633117113254059
      ],
      [
        "晶",
        -10.633117113254059
      ],
      [
        "夥",
        -10.635021875158817
      ],
      [
        "躍",
        -10.63502187515882
      ],
      [
        "幣",
        -10.636930272105383
      ],
      [
        "亦",
        -10.636930272105385
      ],
      [
        "訂",
        -10.636930272105385
      ],
      [
        "謝",
        -10.638518280630365
      ],
      [
        "膜",
        -10.638842317994486
      ],
      [
        "恢",
        -10.640758026806747
      ],
      [
        "兆",
[...]
